unsigned char _Users_n0mn0m_projects_on_air_voice_assistant_train_model_tiny_conv_tflite[] = {
  0x20, 0x00, 0x00, 0x00, 0x54, 0x46, 0x4c, 0x33, 0x00, 0x00, 0x00, 0x00,
  0x00, 0x00, 0x12, 0x00, 0x1c, 0x00, 0x04, 0x00, 0x08, 0x00, 0x0c, 0x00,
  0x10, 0x00, 0x14, 0x00, 0x00, 0x00, 0x18, 0x00, 0x12, 0x00, 0x00, 0x00,
  0x03, 0x00, 0x00, 0x00, 0xc0, 0x56, 0x00, 0x00, 0x18, 0x00, 0x00, 0x00,
  0x1c, 0x00, 0x00, 0x00, 0x2c, 0x00, 0x00, 0x00, 0x04, 0x00, 0x00, 0x00,
  0x01, 0x00, 0x00, 0x00, 0x9c, 0x00, 0x00, 0x00, 0x01, 0x00, 0x00, 0x00,
  0xb8, 0x00, 0x00, 0x00, 0x0f, 0x00, 0x00, 0x00, 0x54, 0x4f, 0x43, 0x4f,
  0x20, 0x43, 0x6f, 0x6e, 0x76, 0x65, 0x72, 0x74, 0x65, 0x64, 0x2e, 0x00,
  0x0a, 0x00, 0x00, 0x00, 0x60, 0x00, 0x00, 0x00, 0x54, 0x00, 0x00, 0x00,
  0x48, 0x00, 0x00, 0x00, 0x3c, 0x00, 0x00, 0x00, 0x34, 0x00, 0x00, 0x00,
  0x2c, 0x00, 0x00, 0x00, 0x24, 0x00, 0x00, 0x00, 0x1c, 0x00, 0x00, 0x00,
  0x10, 0x00, 0x00, 0x00, 0x04, 0x00, 0x00, 0x00, 0x6a, 0xaa, 0xff, 0xff,
  0x38, 0x00, 0x00, 0x00, 0x72, 0xaa, 0xff, 0xff, 0x04, 0x01, 0x00, 0x00,
  0x20, 0xaa, 0xff, 0xff, 0x24, 0xaa, 0xff, 0xff, 0x28, 0xaa, 0xff, 0xff,
  0x2c, 0xaa, 0xff, 0xff, 0x8a, 0xaa, 0xff, 0xff, 0x64, 0x03, 0x00, 0x00,
  0x92, 0xaa, 0xff, 0xff, 0x80, 0x06, 0x00, 0x00, 0x9a, 0xaa, 0xff, 0xff,
  0x08, 0x55, 0x00, 0x00, 0x48, 0xaa, 0xff, 0xff, 0x05, 0x00, 0x00, 0x00,
  0x31, 0x2e, 0x35, 0x2e, 0x30, 0x00, 0x00, 0x00, 0x08, 0x00, 0x0c, 0x00,
  0x04, 0x00, 0x08, 0x00, 0x08, 0x00, 0x00, 0x00, 0x08, 0x00, 0x00, 0x00,
  0x09, 0x00, 0x00, 0x00, 0x13, 0x00, 0x00, 0x00, 0x6d, 0x69, 0x6e, 0x5f,
  0x72, 0x75, 0x6e, 0x74, 0x69, 0x6d, 0x65, 0x5f, 0x76, 0x65, 0x72, 0x73,
  0x69, 0x6f, 0x6e, 0x00, 0x0c, 0xfa, 0xff, 0xff, 0x20, 0x00, 0x00, 0x00,
  0x14, 0x00, 0x00, 0x00, 0x08, 0x00, 0x00, 0x00, 0xd0, 0x54, 0x00, 0x00,
  0x01, 0x00, 0x00, 0x00, 0x05, 0x00, 0x00, 0x00, 0x01, 0x00, 0x00, 0x00,
  0x03, 0x00, 0x00, 0x00, 0x08, 0x00, 0x00, 0x00, 0x20, 0x00, 0x00, 0x00,
  0x40, 0x54, 0x00, 0x00, 0x90, 0x00, 0x00, 0x00, 0x00, 0x01, 0x00, 0x00,
  0x70, 0x01, 0x00, 0x00, 0xd4, 0x01, 0x00, 0x00, 0x40, 0x02, 0x00, 0x00,
  0x54, 0x05, 0x00, 0x00, 0xea, 0xab, 0xff, 0xff, 0x00, 0x00, 0x00, 0x02,
  0x20, 0x00, 0x00, 0x00, 0x08, 0x00, 0x00, 0x00, 0x08, 0x00, 0x00, 0x00,
  0x1c, 0x00, 0x00, 0x00, 0x0b, 0x00, 0x00, 0x00, 0x43, 0x6f, 0x6e, 0x76,
  0x32, 0x44, 0x5f, 0x62, 0x69, 0x61, 0x73, 0x00, 0x01, 0x00, 0x00, 0x00,
  0x08, 0x00, 0x00, 0x00, 0xdc, 0xab, 0xff, 0xff, 0x18, 0x00, 0x00, 0x00,
  0x04, 0x00, 0x00, 0x00, 0x01, 0x00, 0x00, 0x00, 0x00, 0x00, 0x00, 0x00,
  0x00, 0x00, 0x00, 0x00, 0x00, 0x00, 0x00, 0x00, 0x01, 0x00, 0x00, 0x00,
  0x67, 0x2c, 0xd0, 0x38, 0x20, 0x00, 0x00, 0x00, 0x5a, 0x00, 0x00, 0x00,
  0x6f, 0x00, 0x00, 0x00, 0x62, 0xfd, 0xff, 0xff, 0x10, 0x00, 0x00, 0x00,
  0x63, 0xff, 0xff, 0xff, 0x5b, 0xfd, 0xff, 0xff, 0x32, 0x00, 0x00, 0x00,
  0x7e, 0x00, 0x00, 0x00, 0x62, 0xac, 0xff, 0xff, 0x00, 0x00, 0x00, 0x03,
  0x1c, 0x00, 0x00, 0x00, 0x07, 0x00, 0x00, 0x00, 0x08, 0x00, 0x00, 0x00,
  0x24, 0x00, 0x00, 0x00, 0x04, 0x00, 0x00, 0x00, 0x52, 0x65, 0x6c, 0x75,
  0x00, 0x00, 0x00, 0x00, 0x04, 0x00, 0x00, 0x00, 0x01, 0x00, 0x00, 0x00,
  0x19, 0x00, 0x00, 0x00, 0x14, 0x00, 0x00, 0x00, 0x08, 0x00, 0x00, 0x00,
  0x04, 0xfb, 0xff, 0xff, 0x30, 0x00, 0x00, 0x00, 0x24, 0x00, 0x00, 0x00,
  0x18, 0x00, 0x00, 0x00, 0x04, 0x00, 0x00, 0x00, 0x01, 0x00, 0x00, 0x00,
  0x00, 0x00, 0x00, 0x00, 0x00, 0x00, 0x00, 0x00, 0x00, 0x00, 0x00, 0x00,
  0x01, 0x00, 0x00, 0x00, 0x72, 0x32, 0xac, 0x3d, 0x01, 0x00, 0x00, 0x00,
  0x40, 0x86, 0xab, 0x41, 0x01, 0x00, 0x00, 0x00, 0x00, 0x00, 0x00, 0x00,
  0xd6, 0xac, 0xff, 0xff, 0x00, 0x00, 0x00, 0x03, 0x20, 0x00, 0x00, 0x00,
  0x06, 0x00, 0x00, 0x00, 0x08, 0x00, 0x00, 0x00, 0x28, 0x00, 0x00, 0x00,
  0x09, 0x00, 0x00, 0x00, 0x52, 0x65, 0x73, 0x68, 0x61, 0x70, 0x65, 0x5f,
  0x32, 0x00, 0x00, 0x00, 0x04, 0x00, 0x00, 0x00, 0x01, 0x00, 0x00, 0x00,
  0x31, 0x00, 0x00, 0x00, 0x28, 0x00, 0x00, 0x00, 0x01, 0x00, 0x00, 0x00,
  0x7c, 0xfb, 0xff, 0xff, 0x2c, 0x00, 0x00, 0x00, 0x20, 0x00, 0x00, 0x00,
  0x14, 0x00, 0x00, 0x00, 0x04, 0x00, 0x00, 0x00, 0x01, 0x00, 0x00, 0x00,
  0x00, 0x00, 0x00, 0x00, 0x00, 0x00, 0x00, 0x00, 0x01, 0x00, 0x00, 0x00,
  0xc6, 0xd0, 0xd0, 0x3d, 0x01, 0x00, 0x00, 0x00, 0xf5, 0xff, 0xcf, 0x41,
  0x01, 0x00, 0x00, 0x00, 0x00, 0x00, 0x00, 0x00, 0x4a, 0xad, 0xff, 0xff,
  0x00, 0x00, 0x00, 0x03, 0x1c, 0x00, 0x00, 0x00, 0x05, 0x00, 0x00, 0x00,
  0x08, 0x00, 0x00, 0x00, 0x1c, 0x00, 0x00, 0x00, 0x05, 0x00, 0x00, 0x00,
  0x61, 0x64, 0x64, 0x5f, 0x31, 0x00, 0x00, 0x00, 0x02, 0x00, 0x00, 0x00,
  0x01, 0x00, 0x00, 0x00, 0x05, 0x00, 0x00, 0x00, 0xe4, 0xfb, 0xff, 0xff,
  0x2c, 0x00, 0x00, 0x00, 0x20, 0x00, 0x00, 0x00, 0x14, 0x00, 0x00, 0x00,
  0x04, 0x00, 0x00, 0x00, 0x01, 0x00, 0x00, 0x00, 0x41, 0x00, 0x00, 0x00,
  0x00, 0x00, 0x00, 0x00, 0x01, 0x00, 0x00, 0x00, 0x21, 0x99, 0xc1, 0x3d,
  0x01, 0x00, 0x00, 0x00, 0xa7, 0xaf, 0x8f, 0x41, 0x01, 0x00, 0x00, 0x00,
  0x86, 0x9f, 0xc4, 0xc0, 0xb2, 0xad, 0xff, 0xff, 0x00, 0x00, 0x00, 0x03,
  0x24, 0x00, 0x00, 0x00, 0x04, 0x00, 0x00, 0x00, 0x08, 0x00, 0x00, 0x00,
  0x24, 0x00, 0x00, 0x00, 0x0e, 0x00, 0x00, 0x00, 0x6c, 0x61, 0x62, 0x65,
  0x6c, 0x73, 0x5f, 0x73, 0x6f, 0x66, 0x74, 0x6d, 0x61, 0x78, 0x00, 0x00,
  0x02, 0x00, 0x00, 0x00, 0x01, 0x00, 0x00, 0x00, 0x05, 0x00, 0x00, 0x00,
  0x54, 0xfc, 0xff, 0xff, 0x2c, 0x00, 0x00, 0x00, 0x20, 0x00, 0x00, 0x00,
  0x14, 0x00, 0x00, 0x00, 0x04, 0x00, 0x00, 0x00, 0x01, 0x00, 0x00, 0x00,
  0x00, 0x00, 0x00, 0x00, 0x00, 0x00, 0x00, 0x00, 0x01, 0x00, 0x00, 0x00,
  0x00, 0x00, 0x80, 0x3b, 0x01, 0x00, 0x00, 0x00, 0x00, 0x00, 0x7f, 0x3f,
  0x01, 0x00, 0x00, 0x00, 0x00, 0x00, 0x00, 0x00, 0x22, 0xae, 0xff, 0xff,
  0x00, 0x00, 0x00, 0x03, 0x3c, 0x00, 0x00, 0x00, 0x03, 0x00, 0x00, 0x00,
  0x08, 0x00, 0x00, 0x00, 0x44, 0x00, 0x00, 0x00, 0x25, 0x00, 0x00, 0x00,
  0x77, 0x65, 0x69, 0x67, 0x68, 0x74, 0x73, 0x5f, 0x71, 0x75, 0x61, 0x6e,
  0x74, 0x2f, 0x46, 0x61, 0x6b, 0x65, 0x51, 0x75, 0x61, 0x6e, 0x74, 0x57,
  0x69, 0x74, 0x68, 0x4d, 0x69, 0x6e, 0x4d, 0x61, 0x78, 0x56, 0x61, 0x72,
  0x73, 0x00, 0x00, 0x00, 0x04, 0x00, 0x00, 0x00, 0x01, 0x00, 0x00, 0x00,
  0x0a, 0x00, 0x00, 0x00, 0x08, 0x00, 0x00, 0x00, 0x08, 0x00, 0x00, 0x00,
  0xe4, 0xfc, 0xff, 0xff, 0x30, 0x00, 0x00, 0x00, 0x24, 0x00, 0x00, 0x00,
  0x18, 0x00, 0x00, 0x00, 0x04, 0x00, 0x00, 0x00, 0x01, 0x00, 0x00, 0x00,
  0x89, 0x00, 0x00, 0x00, 0x00, 0x00, 0x00, 0x00, 0x00, 0x00, 0x00, 0x00,
  0x01, 0x00, 0x00, 0x00, 0x7d, 0x36, 0x7f, 0x3a, 0x01, 0x00, 0x00, 0x00,
  0x3a, 0x4d, 0xeb, 0x3d, 0x01, 0x00, 0x00, 0x00, 0x73, 0x91, 0x07, 0xbe,
  0x80, 0x02, 0x00, 0x00, 0x8b, 0x71, 0x84, 0x6c, 0xcd, 0xa6, 0x7f, 0x58,
  0x93, 0x86, 0x92, 0x88, 0xc0, 0xb4, 0x8e, 0x81, 0x83, 0x8b, 0x94, 0x68,
  0xa5, 0xac, 0x8b, 0x4d, 0x7c, 0x88, 0x90, 0x8a, 0x85, 0xa2, 0x92, 0x92,
  0x81, 0x73, 0xae, 0x4b, 0xa6, 0x94, 0xa0, 0x6d, 0x84, 0x93, 0x8e, 0x51,
  0x8f, 0x70, 0xa4, 0xad, 0x8c, 0x7d, 0xb5, 0x54, 0xa2, 0x4a, 0xbf, 0x9b,
  0x80, 0xbf, 0xce, 0x70, 0x41, 0x43, 0xc3, 0xc2, 0x8d, 0x79, 0x66, 0x91,
  0xa4, 0xac, 0x98, 0x57, 0x8b, 0x76, 0x85, 0x97, 0xac, 0xb1, 0x83, 0x86,
  0x8c, 0x8d, 0x99, 0x7b, 0x85, 0xb5, 0x8f, 0x5a, 0x7c, 0x8b, 0x7e, 0xab,
  0x7e, 0xa8, 0x8e, 0x92, 0x7f, 0x73, 0xc1, 0x6a, 0x8f, 0x95, 0x8d, 0x69,
  0x76, 0x94, 0x7e, 0x83, 0x7e, 0x77, 0x8e, 0xaa, 0x7d, 0x7a, 0xd5, 0x8a,
  0x82, 0x44, 0xaa, 0x99, 0x90, 0xb2, 0x92, 0x97, 0x3b, 0x3b, 0x98, 0xb6,
  0x7c, 0x72, 0x5d, 0x91, 0x7e, 0xac, 0x80, 0x5b, 0x8e, 0x75, 0x7c, 0x92,
  0xa7, 0xaf, 0x70, 0x82, 0x8e, 0x8d, 0x94, 0x74, 0x74, 0xbf, 0x7f, 0x6b,
  0x84, 0x88, 0x75, 0x9d, 0x7b, 0xac, 0x51, 0x8a, 0x7a, 0x70, 0xd7, 0x6e,
  0x7a, 0x9e, 0x68, 0x7d, 0x9b, 0x8d, 0x70, 0x92, 0x84, 0x77, 0x58, 0xa0,
  0x7e, 0x7e, 0xd5, 0x95, 0x7e, 0x3a, 0x6e, 0x9e, 0x83, 0xaf, 0x88, 0x99,
  0x51, 0x34, 0x85, 0xaa, 0x80, 0x86, 0x58, 0x7e, 0x6e, 0xbc, 0x83, 0x53,
  0x93, 0x75, 0x5b, 0xb0, 0xb9, 0xb8, 0x8c, 0x6f, 0x8e, 0x83, 0x92, 0x65,
  0x78, 0xcf, 0x8a, 0x69, 0x82, 0x73, 0x66, 0xb4, 0x93, 0xa5, 0x6b, 0x87,
  0x83, 0x7b, 0xd9, 0x66, 0x70, 0x8f, 0x82, 0x78, 0x82, 0x8b, 0x77, 0x83,
  0x9f, 0x6b, 0x5c, 0x9f, 0x82, 0x6b, 0xe5, 0x77, 0x78, 0x2a, 0x6e, 0xa8,
  0x7e, 0xa9, 0x89, 0x9d, 0x6e, 0x1f, 0x67, 0xb2, 0x76, 0x86, 0x59, 0x7c,
  0x5a, 0xc4, 0x88, 0x52, 0x81, 0x7a, 0x4e, 0xb3, 0xa3, 0xb9, 0x53, 0x62,
  0x84, 0x87, 0x94, 0x6b, 0x61, 0xd8, 0x7a, 0x76, 0x8a, 0x69, 0x63, 0xb5,
  0x88, 0xa4, 0x4d, 0x7a, 0x91, 0x73, 0xde, 0x53, 0x4e, 0x78, 0x76, 0x7d,
  0x94, 0x96, 0x73, 0x9f, 0x91, 0x68, 0x6e, 0x8c, 0x7f, 0x83, 0xe3, 0x74,
  0x6f, 0x35, 0x79, 0xba, 0x89, 0xa9, 0x8b, 0xac, 0x60, 0x34, 0x74, 0xac,
  0x82, 0x82, 0x4a, 0x7c, 0x39, 0xb3, 0x96, 0x51, 0x99, 0x72, 0x4b, 0xa6,
  0x79, 0xc3, 0xaf, 0x67, 0x8c, 0x76, 0x7e, 0x6f, 0x64, 0xb8, 0xb0, 0x6f,
  0x88, 0x75, 0x6d, 0xaa, 0x70, 0x98, 0xaf, 0x80, 0x79, 0x78, 0xca, 0x54,
  0x70, 0x51, 0xab, 0x8c, 0x8c, 0x93, 0x84, 0x7e, 0x78, 0x68, 0xa5, 0x9e,
  0x87, 0x7c, 0xd6, 0x72, 0x99, 0x22, 0x92, 0xc0, 0x86, 0xab, 0xa6, 0x94,
  0x79, 0x47, 0x85, 0xab, 0x87, 0x76, 0x55, 0x7b, 0x41, 0xae, 0x88, 0x49,
  0x8c, 0x7d, 0x4a, 0xbe, 0x5d, 0xb0, 0x9a, 0x5f, 0x89, 0x70, 0x6d, 0x6a,
  0x70, 0x92, 0x8a, 0x81, 0x7a, 0x7d, 0x67, 0xad, 0x69, 0x87, 0xa5, 0x75,
  0x87, 0x76, 0xb2, 0x59, 0x83, 0x48, 0x90, 0x93, 0x8e, 0x93, 0x7a, 0x91,
  0x89, 0x6b, 0x85, 0x8c, 0x7f, 0x82, 0xc1, 0x71, 0xce, 0x31, 0x8c, 0xb9,
  0x87, 0xa5, 0xa2, 0xb2, 0xa7, 0x64, 0x70, 0xa4, 0x91, 0x85, 0x64, 0x7f,
  0x4b, 0x9e, 0x65, 0x55, 0x84, 0x6f, 0x49, 0xb0, 0x59, 0x9c, 0x72, 0x5b,
  0x8c, 0x81, 0x68, 0x77, 0x6f, 0x63, 0x6a, 0x79, 0x7d, 0x6a, 0x70, 0x9b,
  0x67, 0x7d, 0x78, 0x74, 0x89, 0x87, 0x78, 0x5c, 0x98, 0x44, 0x6c, 0xa0,
  0x96, 0x89, 0x86, 0x8e, 0x92, 0x86, 0x7e, 0x89, 0x8b, 0x8a, 0x92, 0x84,
  0xe1, 0x51, 0x70, 0xc9, 0x83, 0xb5, 0xad, 0xa6, 0xc5, 0x87, 0x6c, 0x85,
  0x95, 0x73, 0x59, 0x65, 0x4e, 0x6a, 0x9b, 0x4e, 0x82, 0x6c, 0x30, 0xb0,
  0x60, 0x53, 0xe1, 0x5a, 0x93, 0x7b, 0x4b, 0x67, 0x90, 0x49, 0xaf, 0x78,
  0x87, 0x73, 0x40, 0xad, 0x71, 0x50, 0xcd, 0x68, 0x7e, 0x89, 0x48, 0x52,
  0xbf, 0x48, 0xb1, 0x9a, 0x80, 0x8e, 0x48, 0x98, 0x9a, 0x8a, 0xb5, 0x79,
  0x7a, 0x89, 0x54, 0x6e, 0xff, 0x56, 0x9b, 0xc0, 0x75, 0xa9, 0x5d, 0xb5,
  0xd1, 0x7e, 0x92, 0x62, 0x84, 0x7b, 0x76, 0x54, 0x85, 0x39, 0x6d, 0x48,
  0x90, 0x7a, 0x28, 0xa3, 0x76, 0x01, 0x81, 0x4b, 0x89, 0x73, 0x50, 0x4b,
  0xb4, 0x29, 0x6f, 0x68, 0x9a, 0x62, 0x1c, 0x9c, 0x82, 0x23, 0x84, 0x66,
  0x89, 0x7a, 0x44, 0x47, 0xd6, 0x49, 0x6d, 0x98, 0x9e, 0x8c, 0x22, 0x87,
  0x8e, 0x6f, 0x99, 0x60, 0x88, 0x7e, 0x30, 0x85, 0xff, 0x4e, 0x68, 0xa4,
  0x87, 0x92, 0x1d, 0xbe, 0xb0, 0x8a, 0x86, 0x34, 0x3a, 0xb1, 0xff, 0xff,
  0x00, 0x00, 0x00, 0x03, 0x48, 0x00, 0x00, 0x00, 0x02, 0x00, 0x00, 0x00,
  0x08, 0x00, 0x00, 0x00, 0x54, 0x00, 0x00, 0x00, 0x31, 0x00, 0x00, 0x00,
  0x77, 0x65, 0x69, 0x67, 0x68, 0x74, 0x73, 0x5f, 0x71, 0x75, 0x61, 0x6e,
  0x74, 0x5f, 0x31, 0x2f, 0x46, 0x61, 0x6b, 0x65, 0x51, 0x75, 0x61, 0x6e,
  0x74, 0x57, 0x69, 0x74, 0x68, 0x4d, 0x69, 0x6e, 0x4d, 0x61, 0x78, 0x56,
  0x61, 0x72, 0x73, 0x2f, 0x74, 0x72, 0x61, 0x6e, 0x73, 0x70, 0x6f, 0x73,
  0x65, 0x00, 0x00, 0x00, 0x02, 0x00, 0x00, 0x00, 0x05, 0x00, 0x00, 0x00,
  0xa0, 0x0f, 0x00, 0x00, 0x0c, 0x00, 0x14, 0x00, 0x04, 0x00, 0x08, 0x00,
  0x0c, 0x00, 0x10, 0x00, 0x0c, 0x00, 0x00, 0x00, 0x2c, 0x00, 0x00, 0x00,
  0x20, 0x00, 0x00, 0x00, 0x14, 0x00, 0x00, 0x00, 0x04, 0x00, 0x00, 0x00,
  0x01, 0x00, 0x00, 0x00, 0x86, 0x00, 0x00, 0x00, 0x00, 0x00, 0x00, 0x00,
  0x01, 0x00, 0x00, 0x00, 0x71, 0x85, 0xdf, 0x39, 0x01, 0x00, 0x00, 0x00,
  0xff, 0xf2, 0x53, 0x3d, 0x01, 0x00, 0x00, 0x00, 0xce, 0x99, 0x67, 0xbd,
  0x20, 0x4e, 0x00, 0x00, 0x8e, 0x7b, 0x74, 0x80, 0x86, 0x89, 0x82, 0x9a,
  0x72, 0x85, 0xa7, 0x7b, 0x4f, 0x85, 0x48, 0x72, 0xa0, 0x6c, 0x87, 0x97,
  0x3e, 0x98, 0x5f, 0x65, 0x98, 0x64, 0x8d, 0x92, 0x32, 0x90, 0x58, 0x65,
  0x7a, 0x8d, 0x7e, 0x8d, 0x3a, 0xa1, 0x5d, 0x8b, 0xa6, 0x6a, 0xa4, 0x8b,
  0x49, 0x5c, 0x4d, 0x76, 0xa0, 0x72, 0x77, 0x8b, 0x2e, 0x80, 0x7f, 0x8a,
  0x88, 0x7d, 0x79, 0x9c, 0x45, 0x87, 0x8f, 0x5c, 0x7b, 0xa7, 0xac, 0x68,
  0x26, 0x7c, 0x75, 0x92, 0x89, 0x63, 0x5e, 0x87, 0x55, 0x97, 0x84, 0x93,
  0x88, 0xac, 0x80, 0x8a, 0x3b, 0x6e, 0x81, 0x93, 0x92, 0x97, 0x86, 0x69,
  0x57, 0x68, 0x73, 0x8d, 0xb0, 0x76, 0xa7, 0x9e, 0x4b, 0xa4, 0x4f, 0x7d,
  0x61, 0x68, 0x9e, 0x70, 0x3e, 0x8c, 0x50, 0x59, 0xa0, 0x7c, 0xa3, 0x5f,
  0x62, 0x82, 0x5d, 0x7e, 0x7c, 0xa8, 0x98, 0x8f, 0x46, 0x96, 0x66, 0x73,
  0x77, 0x76, 0x7a, 0x87, 0x54, 0x9d, 0x8e, 0x86, 0x75, 0x69, 0xa4, 0xa9,
  0x56, 0x81, 0x97, 0x7d, 0x79, 0x7a, 0x8b, 0x8b, 0x60, 0x91, 0x56, 0x87,
  0x93, 0x89, 0x94, 0x95, 0x6d, 0xc6, 0x7b, 0x8b, 0x7f, 0x7c, 0x79, 0x93,
  0x66, 0x5a, 0x93, 0x92, 0x6f, 0x7a, 0x91, 0x9c, 0x44, 0x97, 0x82, 0x9e,
  0xa2, 0x86, 0x8c, 0x80, 0x81, 0x89, 0x5f, 0x6b, 0x7e, 0x9c, 0x86, 0x6f,
  0x68, 0x88, 0x83, 0x8b, 0x6e, 0x7b, 0x91, 0x66, 0x87, 0x84, 0x5e, 0xa4,
  0x76, 0x98, 0x6f, 0x8f, 0x7e, 0x6b, 0x6a, 0x9d, 0x95, 0x62, 0x92, 0x7f,
  0x87, 0x86, 0x75, 0x76, 0xb3, 0x7e, 0x7d, 0x77, 0x7e, 0x8e, 0x84, 0x74,
  0x74, 0x99, 0x91, 0x95, 0x7e, 0x89, 0x8d, 0x99, 0x7a, 0x73, 0x7f, 0x97,
  0x6d, 0x84, 0x6c, 0x7d, 0xaa, 0xa3, 0x65, 0x84, 0x5b, 0x9a, 0x70, 0x9f,
  0x91, 0xa1, 0x7f, 0x83, 0x7c, 0x99, 0xa3, 0x94, 0x6b, 0x80, 0x94, 0x72,
  0x82, 0x96, 0x85, 0x5d, 0x8e, 0x90, 0x9d, 0x98, 0x72, 0x7f, 0x7a, 0x96,
  0x8d, 0x72, 0x90, 0x7e, 0x7d, 0xb3, 0x6a, 0x87, 0x78, 0x9d, 0x7f, 0x89,
  0x8e, 0x6d, 0x82, 0x8d, 0x66, 0x7d, 0x78, 0x62, 0x83, 0x5b, 0x76, 0x9b,
  0x7b, 0x71, 0x91, 0x89, 0x7b, 0xa6, 0x7e, 0x97, 0x70, 0x92, 0x6e, 0xab,
  0x87, 0x7d, 0x73, 0x65, 0xa0, 0x99, 0x97, 0x9a, 0x67, 0xae, 0x90, 0x9e,
  0x95, 0x8c, 0xa1, 0x5d, 0x5d, 0x68, 0x76, 0xad, 0x93, 0x77, 0x62, 0x5a,
  0x77, 0x75, 0x82, 0x94, 0x89, 0x80, 0x75, 0x7b, 0x79, 0x93, 0x75, 0x9e,
  0x8d, 0x60, 0x8d, 0x9c, 0x93, 0x6a, 0x8b, 0x87, 0x95, 0x94, 0x73, 0x84,
  0x8c, 0x8e, 0x91, 0x85, 0x72, 0x7e, 0x96, 0x67, 0x9b, 0x91, 0x8c, 0x82,
  0x88, 0x66, 0x73, 0x5c, 0x94, 0x87, 0xb4, 0x75, 0x93, 0xa9, 0x62, 0x6f,
  0x96, 0x93, 0xa6, 0x86, 0x84, 0x9e, 0x80, 0x77, 0x93, 0x73, 0xa9, 0x81,
  0x72, 0x99, 0x9b, 0x86, 0x77, 0x84, 0x94, 0x6d, 0x8e, 0x8a, 0xa5, 0x7f,
  0xa7, 0x6c, 0xa2, 0x5b, 0x64, 0x85, 0x88, 0x6e, 0x95, 0xa2, 0x65, 0x63,
  0x8f, 0x75, 0xaa, 0x5f, 0x94, 0x7b, 0x64, 0x6b, 0x87, 0x85, 0xa7, 0x8b,
  0xae, 0x80, 0xa9, 0x7e, 0x7c, 0x7f, 0xb4, 0x7e, 0x7c, 0x9e, 0x8e, 0x60,
  0x93, 0x7f, 0x96, 0x56, 0x88, 0x87, 0x73, 0x64, 0x9f, 0xa1, 0xb4, 0x82,
  0x9e, 0x99, 0x8a, 0x7a, 0x96, 0x6c, 0x8b, 0xa0, 0x9c, 0x6c, 0x80, 0x76,
  0x96, 0x88, 0x80, 0x78, 0x8a, 0x9f, 0x88, 0x69, 0x88, 0x9d, 0x95, 0x7a,
  0x5f, 0xd0, 0xa2, 0x9d, 0x69, 0x93, 0x8f, 0x78, 0x6a, 0x6c, 0x95, 0x87,
  0x9e, 0x82, 0x61, 0xae, 0x7c, 0xa1, 0x8b, 0x98, 0x8c, 0x6d, 0x7c, 0x8c,
  0x83, 0x92, 0x81, 0x7e, 0x58, 0x88, 0x87, 0xa0, 0x95, 0x66, 0x84, 0x6f,
  0x8b, 0x96, 0x5e, 0x75, 0xa9, 0x83, 0xa8, 0xa0, 0xa7, 0xaa, 0x96, 0x91,
  0x85, 0x69, 0x97, 0x7e, 0x5b, 0x77, 0x62, 0x7f, 0x90, 0x7b, 0x81, 0x77,
  0x7d, 0x92, 0x58, 0x91, 0x7e, 0x87, 0x98, 0x75, 0x77, 0x7c, 0x6a, 0xb3,
  0xaf, 0x9e, 0x8d, 0x73, 0x9e, 0xa0, 0x7d, 0x7f, 0x8c, 0x7d, 0x79, 0x9a,
  0x91, 0x8c, 0x7f, 0x7a, 0x99, 0x69, 0x70, 0x9d, 0x6f, 0x6c, 0x7d, 0x9a,
  0x90, 0x8a, 0x86, 0x8e, 0x9e, 0xa2, 0x95, 0xa4, 0x87, 0x7e, 0x78, 0x7f,
  0x97, 0x7b, 0x94, 0x74, 0x82, 0x7f, 0xa4, 0x6a, 0xb3, 0x7d, 0xa1, 0x78,
  0xba, 0xa0, 0x75, 0x7b, 0x8f, 0x81, 0x83, 0x62, 0x9f, 0x80, 0x78, 0x7d,
  0x95, 0x9f, 0x9e, 0x7a, 0x9a, 0xa0, 0x6b, 0x8d, 0x62, 0xa6, 0x68, 0x62,
  0x6d, 0x92, 0xa3, 0x6a, 0x7c, 0x77, 0x7d, 0x82, 0x9f, 0x96, 0x88, 0x75,
  0x6a, 0x90, 0xa8, 0x73, 0x9b, 0xce, 0x5d, 0x82, 0x61, 0x75, 0x90, 0x91,
  0x5f, 0x97, 0x9c, 0x97, 0x7f, 0x99, 0x75, 0xc9, 0x7f, 0x7f, 0x8a, 0x76,
  0x70, 0x5b, 0x7f, 0x8c, 0x68, 0x8b, 0xab, 0x7f, 0x9c, 0x9e, 0x6a, 0x98,
  0x87, 0x90, 0x7c, 0x6c, 0xb4, 0x82, 0x5f, 0xb0, 0xb1, 0x5e, 0x97, 0x7f,
  0x82, 0x72, 0x7d, 0xb2, 0xa2, 0x68, 0x92, 0x9b, 0x61, 0x94, 0x90, 0x93,
  0xa3, 0x6b, 0x88, 0x6a, 0x85, 0x75, 0x5b, 0x98, 0xb2, 0x83, 0x85, 0x88,
  0x8d, 0x8a, 0x82, 0xa6, 0x92, 0x7d, 0x9c, 0x67, 0x6c, 0x9b, 0x78, 0xc4,
  0x85, 0x7f, 0x9e, 0x6c, 0x8e, 0x8d, 0x9c, 0x8b, 0x95, 0x80, 0x8f, 0x85,
  0x89, 0x99, 0xa1, 0xc5, 0x9b, 0x78, 0x74, 0x77, 0x78, 0x77, 0xa5, 0x80,
  0x8b, 0x6e, 0x8e, 0x7d, 0x93, 0x99, 0xa0, 0xa3, 0x9c, 0x77, 0x82, 0x98,
  0x97, 0x81, 0x7f, 0xa3, 0xa2, 0x7e, 0x84, 0x70, 0x90, 0xa2, 0x71, 0xb9,
  0x9c, 0x52, 0x85, 0x85, 0x93, 0x77, 0xa9, 0x96, 0x76, 0x70, 0xa7, 0x7b,
  0x83, 0x91, 0xa7, 0x9e, 0x93, 0x97, 0xa1, 0x90, 0x8d, 0x79, 0x5e, 0x69,
  0x80, 0x88, 0x6d, 0x67, 0x63, 0x96, 0x7e, 0x70, 0x87, 0xc4, 0x82, 0x78,
  0x7b, 0x8d, 0x94, 0x91, 0x58, 0x9d, 0x9e, 0x87, 0x7f, 0x70, 0x85, 0xbf,
  0x72, 0x94, 0xba, 0x8c, 0x76, 0x88, 0x67, 0x8f, 0x77, 0x7b, 0xb4, 0x54,
  0x67, 0xa2, 0x60, 0x79, 0x9f, 0x6a, 0x9d, 0x5f, 0x73, 0x9c, 0x85, 0x7b,
  0xa5, 0x72, 0x79, 0x75, 0x9c, 0x8b, 0x67, 0x77, 0xa2, 0x47, 0xac, 0x7a,
  0x97, 0x97, 0x51, 0xb4, 0xa2, 0x73, 0x79, 0x77, 0xa2, 0x87, 0x6e, 0x8a,
  0x8e, 0x7f, 0x6f, 0x6d, 0x76, 0x93, 0x6a, 0xb8, 0x86, 0x5e, 0xa7, 0x7d,
  0x6c, 0x6d, 0xa1, 0xc5, 0x85, 0x99, 0x88, 0x8a, 0x89, 0x79, 0x7d, 0xca,
  0x9a, 0x83, 0x79, 0x93, 0x78, 0x86, 0x86, 0xac, 0x97, 0x6b, 0x97, 0x8e,
  0x7d, 0x91, 0x8a, 0xad, 0x89, 0x9b, 0x90, 0x66, 0x80, 0x75, 0x99, 0xb4,
  0x9f, 0x74, 0xb5, 0x77, 0x72, 0x84, 0xae, 0x9f, 0xb1, 0x6f, 0x8a, 0x60,
  0x81, 0x91, 0x84, 0x9c, 0x95, 0x5d, 0xab, 0x6a, 0x78, 0x6f, 0x8d, 0xaf,
  0x94, 0x85, 0xa3, 0x98, 0x9b, 0x81, 0x82, 0xba, 0x8d, 0x59, 0x94, 0x85,
  0x68, 0x90, 0xa8, 0x9b, 0xa1, 0x88, 0x93, 0x8b, 0x90, 0x75, 0x91, 0x97,
  0x73, 0xb5, 0x85, 0x9f, 0x8d, 0x96, 0x98, 0xae, 0x5a, 0x7e, 0x9c, 0x96,
  0x73, 0x84, 0x6c, 0xbf, 0x6f, 0x9e, 0x6b, 0x9e, 0x72, 0x79, 0x6e, 0x90,
  0x8c, 0x97, 0x95, 0x82, 0x7e, 0xa6, 0x8c, 0x87, 0x8f, 0x64, 0x77, 0x6c,
  0x65, 0x9a, 0x5a, 0x7e, 0x89, 0x6e, 0x9d, 0x72, 0x95, 0x9e, 0x7e, 0x8b,
  0x88, 0x72, 0x96, 0x76, 0x9a, 0xab, 0x61, 0x9f, 0x8f, 0x7b, 0x80, 0x7c,
  0x79, 0x83, 0x61, 0x9d, 0x9e, 0x7a, 0x8b, 0x5c, 0x88, 0x6c, 0x75, 0xa3,
  0x9b, 0x72, 0x7b, 0x93, 0x82, 0x92, 0x84, 0xb4, 0x8b, 0x83, 0xa7, 0xa3,
  0x70, 0xa0, 0xa6, 0x9e, 0xbd, 0x5f, 0x9a, 0x7f, 0x80, 0xa9, 0x9c, 0x97,
  0x8b, 0x99, 0x90, 0x83, 0xa7, 0x9a, 0x88, 0xa4, 0x95, 0x69, 0xaf, 0x99,
  0x8b, 0x7e, 0xb1, 0xaa, 0x9e, 0x84, 0x82, 0x99, 0x6c, 0x77, 0xa7, 0x9f,
  0x8c, 0x8d, 0xa2, 0x75, 0x92, 0x7c, 0x9e, 0xa2, 0xa5, 0x6e, 0xa5, 0x77,
  0x82, 0x78, 0xab, 0x8f, 0x9c, 0x6b, 0x94, 0x7d, 0x89, 0x7b, 0x9f, 0xa9,
  0x9d, 0x7f, 0xa4, 0x68, 0x7d, 0x81, 0x65, 0x7b, 0xc0, 0x99, 0x8d, 0x8b,
  0x7e, 0x99, 0x76, 0xa9, 0xae, 0xbe, 0x8d, 0x9d, 0x8c, 0x6e, 0x81, 0xb4,
  0x51, 0x57, 0xa5, 0x86, 0x6a, 0x8b, 0x6b, 0xab, 0x6e, 0x8c, 0x8b, 0x73,
  0x82, 0x83, 0x5d, 0xa5, 0x6d, 0x7e, 0xa4, 0x73, 0xa7, 0x7f, 0x89, 0x9b,
  0x93, 0x46, 0x8d, 0xad, 0x84, 0x88, 0x90, 0x8d, 0x88, 0xa1, 0xa7, 0x77,
  0x61, 0x94, 0x5b, 0x8a, 0x89, 0x66, 0x8e, 0x7b, 0x98, 0x85, 0x55, 0x81,
  0x98, 0x9a, 0xa2, 0x50, 0x93, 0x74, 0x57, 0x98, 0x90, 0x69, 0xb9, 0x6f,
  0x8d, 0x88, 0x65, 0x98, 0x7d, 0x71, 0xbd, 0x52, 0x5e, 0x83, 0x86, 0x9a,
  0xb4, 0x83, 0xad, 0x93, 0x77, 0x88, 0x8e, 0xa3, 0xae, 0x96, 0xa3, 0x99,
  0x8d, 0x92, 0x90, 0x89, 0x84, 0x61, 0x8b, 0x6e, 0x8e, 0xa0, 0x8e, 0x9b,
  0xaa, 0x8e, 0x95, 0xa3, 0x75, 0x73, 0x94, 0x9c, 0x95, 0x84, 0x7e, 0x9d,
  0x9d, 0x90, 0x8b, 0x94, 0x9e, 0x7b, 0x8d, 0x6b, 0x77, 0x9c, 0x92, 0x95,
  0x9c, 0x6d, 0x98, 0x79, 0x72, 0x75, 0x92, 0x9f, 0xa3, 0x68, 0xa2, 0x81,
  0x7d, 0x8f, 0x5f, 0xae, 0xab, 0x83, 0x88, 0x8f, 0x8d, 0x82, 0x7b, 0xab,
  0xbe, 0xc1, 0x7e, 0x9a, 0x9f, 0x78, 0x92, 0xc4, 0x88, 0xb7, 0x94, 0x92,
  0x6c, 0x93, 0x80, 0xa7, 0x57, 0xa2, 0x6d, 0x88, 0x87, 0x85, 0x69, 0xb3,
  0x6d, 0x95, 0x76, 0x9c, 0x90, 0x8e, 0x60, 0xbc, 0x9c, 0x75, 0x9c, 0x82,
  0x86, 0x68, 0x5a, 0x9e, 0x7a, 0x5e, 0x96, 0x9b, 0x7c, 0x9d, 0x55, 0xa6,
  0x87, 0x67, 0x8e, 0xb0, 0x87, 0x83, 0x8a, 0x86, 0x7f, 0x5e, 0xa7, 0x77,
  0x82, 0x95, 0x51, 0x7f, 0x9e, 0x76, 0x83, 0x8e, 0x8c, 0x97, 0x43, 0x98,
  0x85, 0x5a, 0xbd, 0x8f, 0x81, 0x6d, 0x78, 0x8d, 0x9a, 0x6b, 0x9b, 0x71,
  0xa2, 0x68, 0x91, 0xaa, 0x97, 0x7b, 0x8e, 0x83, 0x7a, 0x6c, 0x9d, 0xa2,
  0x93, 0x8c, 0x8b, 0x7f, 0x99, 0x85, 0x81, 0x84, 0x90, 0x6b, 0xaa, 0x84,
  0x75, 0x7a, 0x9f, 0x98, 0x8a, 0x60, 0x82, 0x9e, 0x96, 0x88, 0x9e, 0x99,
  0x9a, 0x8e, 0xa4, 0x83, 0xb4, 0x88, 0x77, 0x9e, 0x94, 0x54, 0xc2, 0x66,
  0x88, 0x9f, 0x83, 0x94, 0xb1, 0x90, 0x8f, 0x7c, 0x62, 0x87, 0x72, 0x90,
  0xa1, 0x73, 0x98, 0x6d, 0xad, 0x8a, 0x7d, 0x92, 0x8f, 0x5b, 0x71, 0x97,
  0x6b, 0x63, 0x91, 0xb2, 0xbf, 0xa8, 0x9c, 0x7d, 0x8d, 0x83, 0x90, 0xb2,
  0xba, 0xc6, 0xa1, 0x72, 0x7c, 0x9f, 0x72, 0xb4, 0x4d, 0x92, 0x78, 0x8b,
  0x73, 0x86, 0x8b, 0xaa, 0x73, 0x9c, 0x7c, 0x85, 0x69, 0x9e, 0x6e, 0xa7,
  0x8a, 0x62, 0x9c, 0xaa, 0xa4, 0x9a, 0x6d, 0xa5, 0x7b, 0x50, 0x8a, 0x78,
  0x66, 0x68, 0x70, 0x99, 0x85, 0x89, 0xa9, 0x84, 0x89, 0x9a, 0x74, 0xa5,
  0x7e, 0x64, 0xc0, 0x98, 0x74, 0x6e, 0x3e, 0x91, 0x88, 0x7b, 0x8f, 0x5c,
  0x7e, 0x8a, 0x67, 0xac, 0xa4, 0x53, 0x91, 0x8a, 0x9b, 0xa9, 0x7d, 0x89,
  0x9e, 0x75, 0x7a, 0x7c, 0x59, 0x6f, 0x87, 0x97, 0x8a, 0x87, 0x9a, 0x73,
  0x92, 0x93, 0x9f, 0x86, 0x8e, 0x6f, 0x79, 0x5e, 0x80, 0x8a, 0x84, 0x9d,
  0xa3, 0x56, 0x85, 0x97, 0x9f, 0x9e, 0xab, 0x98, 0x98, 0x61, 0xac, 0x81,
  0x87, 0x8e, 0x9a, 0xa1, 0x94, 0x89, 0x9b, 0x8c, 0x6a, 0xa3, 0x81, 0xc3,
  0x99, 0x8b, 0xa0, 0x67, 0x9b, 0x79, 0x8a, 0x88, 0xb6, 0x6d, 0xc1, 0x72,
  0x92, 0x7b, 0x7f, 0x94, 0x88, 0x59, 0x9e, 0x78, 0x5a, 0x74, 0x81, 0x9c,
  0x9c, 0x86, 0xa5, 0x8d, 0x92, 0xa2, 0x76, 0xae, 0xa6, 0xa2, 0xb2, 0x7d,
  0x98, 0x73, 0x83, 0xab, 0xa6, 0xba, 0x9c, 0x87, 0x8e, 0x70, 0x4c, 0xa8,
  0x4e, 0x72, 0x9a, 0x89, 0x8d, 0x98, 0x5e, 0xc5, 0x6e, 0x89, 0x9d, 0xaf,
  0x64, 0x7f, 0x54, 0xaa, 0x8e, 0x5a, 0x96, 0x77, 0x6f, 0x96, 0x63, 0xa2,
  0x8c, 0x64, 0xa3, 0x83, 0xa0, 0x6b, 0x67, 0xa3, 0x8d, 0x89, 0xb8, 0x9b,
  0x62, 0x8e, 0x81, 0x97, 0x83, 0x58, 0xc0, 0x5f, 0x86, 0x6b, 0x56, 0xb0,
  0x8f, 0x92, 0x95, 0x79, 0x7d, 0x74, 0x79, 0xae, 0x84, 0x74, 0x93, 0x6e,
  0x70, 0x7e, 0x6d, 0x91, 0x85, 0x8a, 0x8e, 0x76, 0xa3, 0x69, 0x7e, 0xa0,
  0x81, 0x89, 0xae, 0x9a, 0x82, 0x93, 0x98, 0x9b, 0xa0, 0x95, 0x7f, 0x8a,
  0x5e, 0x87, 0x8c, 0x96, 0xac, 0x75, 0xbe, 0x7e, 0x98, 0x7c, 0xa1, 0x9b,
  0xa6, 0x6a, 0xad, 0x84, 0xa3, 0x62, 0x83, 0xa6, 0x94, 0x78, 0x84, 0xa3,
  0x70, 0x56, 0x75, 0xaa, 0xa5, 0x84, 0xb1, 0x99, 0x6f, 0x80, 0x5c, 0xa0,
  0x9c, 0x74, 0xc3, 0x69, 0x77, 0x84, 0x92, 0x7a, 0x94, 0x5d, 0x84, 0x5e,
  0x5d, 0x80, 0x7b, 0x9e, 0xb3, 0x5e, 0x90, 0x96, 0x70, 0xa0, 0x98, 0x9b,
  0xad, 0xb0, 0xa9, 0x57, 0x77, 0x97, 0x9e, 0x93, 0x91, 0xbc, 0x6e, 0x75,
  0x68, 0x80, 0x53, 0xac, 0x60, 0x6d, 0x86, 0x84, 0x96, 0x9e, 0x7f, 0xb5,
  0x66, 0x6f, 0xac, 0x8a, 0x99, 0x85, 0x83, 0xaf, 0x97, 0x51, 0xa8, 0x8b,
  0x88, 0xa0, 0x4f, 0xb2, 0x8d, 0x54, 0x99, 0x86, 0x82, 0x73, 0x79, 0xa8,
  0x7f, 0x88, 0xa8, 0x82, 0x8b, 0x7f, 0x55, 0xa5, 0x95, 0x61, 0x89, 0x79,
  0x8e, 0x53, 0x38, 0x8f, 0x85, 0x73, 0x99, 0x6d, 0x9e, 0x93, 0x57, 0x7e,
  0x96, 0x68, 0x8e, 0x65, 0x7a, 0x89, 0x77, 0xa4, 0x82, 0x64, 0xb0, 0x71,
  0x7a, 0x82, 0x9b, 0xa4, 0x84, 0x93, 0xa4, 0x50, 0x81, 0xa2, 0x6c, 0x8d,
  0x8c, 0x6b, 0x84, 0x8f, 0x92, 0x6e, 0x60, 0x9f, 0x8e, 0x72, 0xbd, 0x78,
  0x82, 0xab, 0x9d, 0x95, 0x95, 0x55, 0x92, 0xae, 0x7c, 0x9c, 0x94, 0x94,
  0xb9, 0x8d, 0x96, 0x70, 0x59, 0x7d, 0x6d, 0xab, 0xaa, 0x50, 0x9d, 0x7f,
  0x7e, 0x90, 0x78, 0xa8, 0x9c, 0x67, 0x9d, 0x8b, 0x71, 0x93, 0x9a, 0x8a,
  0xae, 0x79, 0xac, 0x84, 0xa6, 0x7f, 0x7a, 0x9e, 0xa9, 0x69, 0x8f, 0x5a,
  0x81, 0x88, 0x93, 0x98, 0xad, 0x95, 0x99, 0x62, 0x70, 0x88, 0x81, 0x89,
  0x86, 0xab, 0xa9, 0x83, 0x92, 0x84, 0x53, 0xb3, 0x5d, 0x58, 0x8a, 0x7f,
  0x70, 0x96, 0x81, 0xa8, 0x6a, 0x5c, 0xb9, 0x82, 0x86, 0x7c, 0x50, 0xad,
  0x8a, 0x7e, 0x8f, 0x72, 0x5c, 0x9d, 0x4a, 0x95, 0x85, 0x5d, 0xa5, 0x62,
  0x83, 0x83, 0x60, 0x8c, 0x8f, 0x73, 0x98, 0x6e, 0x76, 0x8f, 0x72, 0x9f,
  0x83, 0x5e, 0xb2, 0x7c, 0x89, 0x85, 0x57, 0x8c, 0x8a, 0x75, 0xb8, 0x62,
  0xa4, 0x5f, 0x65, 0x9a, 0x80, 0x82, 0x8b, 0x51, 0x67, 0x6a, 0x67, 0xa3,
  0x8b, 0x67, 0x87, 0x7e, 0x72, 0x7a, 0xa0, 0x8f, 0x8f, 0x90, 0xc4, 0x89,
  0x6b, 0x6d, 0x80, 0x98, 0xa2, 0x73, 0xa6, 0x59, 0x89, 0xa0, 0x8d, 0x93,
  0x86, 0x66, 0xc0, 0x85, 0x7a, 0x9b, 0x96, 0xa2, 0x86, 0x7e, 0x8d, 0x86,
  0x91, 0xa1, 0x80, 0xa1, 0xae, 0x7b, 0x8d, 0x71, 0x65, 0x8c, 0x83, 0xa7,
  0x97, 0x81, 0x90, 0x69, 0x7e, 0x81, 0x86, 0x93, 0x97, 0x63, 0xc2, 0x81,
  0x8a, 0x8f, 0x7f, 0xa2, 0x94, 0x6e, 0xbf, 0x99, 0x72, 0x73, 0x66, 0x9b,
  0xb1, 0x63, 0x82, 0x73, 0x86, 0x95, 0x93, 0x70, 0xa9, 0xa4, 0x8d, 0x69,
  0x76, 0x97, 0x7a, 0x8e, 0xaa, 0xb3, 0x81, 0x82, 0x69, 0xa8, 0x3f, 0xb3,
  0x61, 0x61, 0x9e, 0x79, 0x99, 0x96, 0x6a, 0xa6, 0x5a, 0x89, 0xa0, 0x99,
  0x86, 0x8a, 0x5b, 0xac, 0x8f, 0x63, 0x9e, 0x7f, 0x78, 0x85, 0x5b, 0xa2,
  0x91, 0x60, 0x79, 0x66, 0x7b, 0x84, 0x7a, 0xa3, 0x91, 0x91, 0xa0, 0x6a,
  0x96, 0x8a, 0x62, 0xa5, 0x93, 0x50, 0x8f, 0x73, 0x8f, 0x5f, 0x51, 0xa4,
  0x84, 0x63, 0xb5, 0x4d, 0x75, 0x62, 0x6b, 0xad, 0x89, 0x75, 0x9c, 0x45,
  0x8c, 0x86, 0x79, 0x9b, 0x94, 0x85, 0xb1, 0x4a, 0x74, 0x6e, 0x8e, 0x94,
  0x9d, 0x75, 0x9f, 0x80, 0x7e, 0x89, 0x8c, 0x8c, 0x89, 0x75, 0xab, 0x53,
  0x63, 0x9f, 0x80, 0x8b, 0x86, 0x77, 0xa3, 0x81, 0x73, 0x80, 0x86, 0x99,
  0x7f, 0x5f, 0xa3, 0x9b, 0x87, 0x93, 0x89, 0x8c, 0xa9, 0x94, 0xc7, 0x91,
  0x9a, 0x81, 0x9f, 0xa8, 0xb9, 0x76, 0xab, 0x81, 0xa3, 0x85, 0x64, 0xa8,
  0xbc, 0x4b, 0x88, 0x70, 0x75, 0x83, 0x6b, 0x93, 0xb4, 0x8d, 0xac, 0x92,
  0x87, 0x6a, 0x6e, 0x99, 0x98, 0x51, 0xa2, 0x94, 0xa8, 0x76, 0x9a, 0x85,
  0x97, 0xb0, 0xab, 0x92, 0x65, 0xa1, 0x9e, 0x8c, 0x9a, 0xb0, 0x8f, 0xa2,
  0xa4, 0x8d, 0x31, 0xb7, 0x41, 0x91, 0x81, 0x6f, 0x99, 0xb0, 0x5f, 0xa8,
  0x5b, 0x67, 0x7b, 0x8d, 0x7e, 0x5c, 0x65, 0xac, 0x94, 0x65, 0x92, 0x85,
  0x76, 0x7a, 0x61, 0x96, 0x99, 0x33, 0x8a, 0x85, 0x7e, 0x6d, 0x4f, 0xb4,
  0xae, 0x8f, 0x96, 0x9d, 0x8e, 0x81, 0x73, 0xab, 0x85, 0x5a, 0x9c, 0x5b,
  0x9e, 0x93, 0x62, 0xae, 0x8d, 0x45, 0xa9, 0x7f, 0x8b, 0x5e, 0x54, 0xb1,
  0x82, 0x6a, 0x7e, 0x6a, 0x8d, 0x62, 0x5a, 0xa9, 0x7e, 0x4d, 0xbb, 0x78,
  0x6c, 0x6e, 0x64, 0xa2, 0x83, 0x5f, 0x95, 0x8e, 0x8d, 0x94, 0x7f, 0xa8,
  0xaf, 0x89, 0xa1, 0x96, 0x81, 0x6a, 0x8c, 0x99, 0xa1, 0x96, 0x9e, 0x7b,
  0x66, 0xb4, 0x95, 0xa4, 0xab, 0x7d, 0x92, 0xa8, 0x8e, 0x7c, 0x78, 0xa6,
  0xaa, 0x96, 0xa1, 0x9e, 0x78, 0x68, 0x7b, 0xa8, 0xa0, 0x6a, 0xa0, 0x84,
  0x64, 0x99, 0x93, 0xb0, 0xa5, 0x62, 0x8a, 0x82, 0x82, 0x6d, 0x73, 0x96,
  0xb3, 0x73, 0xa6, 0x64, 0xa5, 0x59, 0x57, 0x95, 0xa9, 0x6e, 0xc6, 0x5c,
  0x9c, 0x60, 0x64, 0x92, 0xa5, 0x92, 0xbb, 0xa5, 0xa6, 0x8f, 0x83, 0x97,
  0xa7, 0x94, 0x80, 0xb1, 0x72, 0xae, 0x43, 0xb0, 0x5c, 0x84, 0xa0, 0x88,
  0x8e, 0xa3, 0x60, 0xad, 0x68, 0x8b, 0xa3, 0x9e, 0x99, 0x7e, 0x68, 0xa8,
  0x9e, 0x4f, 0x95, 0x8a, 0x66, 0x50, 0x6b, 0xa1, 0x9d, 0x5d, 0x8b, 0x78,
  0x8e, 0x7f, 0x6d, 0xaa, 0xa2, 0x7c, 0xb5, 0x8d, 0x81, 0x72, 0x59, 0xab,
  0x8a, 0x79, 0xba, 0x70, 0x8c, 0x57, 0x59, 0x9f, 0xa6, 0x63, 0x83, 0x6d,
  0xaf, 0x7f, 0x54, 0x96, 0x8d, 0x57, 0x94, 0x67, 0xa3, 0x5e, 0x6c, 0x99,
  0x85, 0x5f, 0x7d, 0x80, 0x6f, 0x9a, 0xa1, 0xae, 0x8d, 0x7d, 0xad, 0x7c,
  0xb0, 0xa0, 0x90, 0x8c, 0xa0, 0x92, 0xa2, 0x90, 0x99, 0x98, 0x7c, 0x8e,
  0x93, 0x5a, 0xb2, 0x6b, 0x9a, 0x79, 0xaf, 0xa8, 0xb2, 0x7e, 0x90, 0x7e,
  0x68, 0x6f, 0x86, 0x9f, 0x9a, 0x87, 0x8d, 0x91, 0x76, 0xa5, 0x8c, 0x87,
  0x96, 0x8c, 0x8e, 0x72, 0xab, 0xa0, 0x81, 0xb8, 0x9b, 0x68, 0x98, 0x63,
  0x6e, 0x90, 0xa0, 0x83, 0xac, 0x61, 0xaf, 0x98, 0x9f, 0x52, 0x86, 0x94,
  0xb4, 0x4e, 0x81, 0x8c, 0x77, 0x76, 0x7c, 0x7b, 0x9c, 0x96, 0xa4, 0x97,
  0x96, 0x94, 0x8d, 0x87, 0x98, 0xad, 0x8c, 0x7a, 0x84, 0xa2, 0x42, 0xb7,
  0x59, 0x87, 0x87, 0x6d, 0xa8, 0x7a, 0x54, 0xaf, 0x6b, 0x6d, 0xb8, 0x9e,
  0x86, 0x86, 0x5a, 0xa9, 0x94, 0x46, 0x95, 0x8a, 0xa9, 0x6c, 0x42, 0xb2,
  0xa5, 0x43, 0x92, 0x84, 0x8c, 0x7c, 0x56, 0xb0, 0x8c, 0x7b, 0x99, 0x7e,
  0x8a, 0x6e, 0x43, 0x97, 0x8e, 0x75, 0xb6, 0x6e, 0x8a, 0x74, 0x4f, 0x95,
  0x95, 0x7b, 0x8b, 0x47, 0x9a, 0x72, 0x3f, 0x8a, 0x8c, 0x71, 0x9a, 0x75,
  0x88, 0x74, 0x6c, 0xa3, 0x84, 0x63, 0xa5, 0x79, 0x83, 0x79, 0x77, 0x96,
  0x89, 0x91, 0x74, 0x6c, 0xa4, 0x7d, 0x9a, 0xa9, 0x87, 0x6f, 0x8a, 0x71,
  0x8a, 0x87, 0x7b, 0x9a, 0xa6, 0x5d, 0x84, 0x80, 0x87, 0xb7, 0x6d, 0x9f,
  0x9f, 0x62, 0x9f, 0xa9, 0x7e, 0x70, 0x7e, 0xb0, 0x9a, 0x98, 0xa4, 0x9d,
  0xa6, 0x91, 0x81, 0x9c, 0x9b, 0x78, 0xa0, 0x72, 0x8b, 0x90, 0x70, 0x8e,
  0xa8, 0x71, 0xb0, 0x51, 0xb4, 0x90, 0x77, 0x9b, 0xa5, 0x57, 0xaa, 0x65,
  0x8f, 0x70, 0x66, 0x8c, 0xb3, 0x82, 0x9c, 0x70, 0x7b, 0x6d, 0x9f, 0x80,
  0x9d, 0x92, 0xa2, 0x9e, 0x71, 0x6f, 0x98, 0x87, 0x82, 0xac, 0xac, 0x93,
  0x8c, 0x8d, 0x3a, 0xa0, 0x5f, 0x75, 0x86, 0x7e, 0xa1, 0x8e, 0x64, 0xa7,
  0x70, 0x9a, 0xc1, 0xa7, 0x6a, 0x7d, 0x4d, 0xc6, 0x98, 0x4a, 0x96, 0x72,
  0x85, 0x88, 0x36, 0xb5, 0x98, 0x41, 0xae, 0x63, 0x94, 0x6e, 0x49, 0xb6,
  0x9b, 0x94, 0xbb, 0x5f, 0x8f, 0x4e, 0x82, 0x93, 0x85, 0x54, 0x97, 0x56,
  0x8e, 0x82, 0x3c, 0xaf, 0x93, 0x71, 0x83, 0x52, 0x88, 0x5d, 0x5c, 0x9c,
  0x74, 0x75, 0xa1, 0x55, 0x90, 0x6b, 0x71, 0x9b, 0x8a, 0x62, 0xbe, 0x53,
  0x9f, 0xa0, 0x85, 0xa2, 0x86, 0x5d, 0x83, 0x76, 0x96, 0x7b, 0x84, 0x8a,
  0x99, 0x72, 0xa0, 0x65, 0x75, 0x8a, 0x7d, 0x8d, 0x9a, 0x51, 0x8f, 0x8b,
  0x81, 0x8b, 0xa0, 0xa9, 0x98, 0x98, 0x8b, 0xb1, 0x76, 0x88, 0x80, 0xaf,
  0xb5, 0x84, 0xa7, 0xa2, 0x64, 0x87, 0x79, 0xa0, 0x99, 0x64, 0x98, 0x88,
  0x68, 0x94, 0x6a, 0x99, 0x97, 0x72, 0xa3, 0x56, 0x74, 0x89, 0x73, 0x98,
  0xb1, 0x6e, 0xa9, 0x55, 0x62, 0x81, 0x6f, 0xa1, 0xa6, 0x78, 0x8e, 0x92,
  0xa8, 0x7d, 0x5a, 0x86, 0x8d, 0x8f, 0xaa, 0x6c, 0x5f, 0x97, 0x87, 0x97,
  0x99, 0x9b, 0x82, 0x96, 0x99, 0xb6, 0x45, 0xb5, 0x6a, 0x83, 0x80, 0x91,
  0x8e, 0x77, 0x3d, 0xb5, 0x80, 0x7b, 0x96, 0xa7, 0x7a, 0x7b, 0x54, 0xb1,
  0x9b, 0x70, 0xa0, 0x8f, 0x9b, 0x74, 0x62, 0xb6, 0x95, 0x3c, 0xc5, 0x6a,
  0xa9, 0x7b, 0x49, 0xb6, 0xa3, 0x6e, 0xbc, 0x53, 0xac, 0x6b, 0x5b, 0xa3,
  0x80, 0x68, 0xa4, 0x61, 0x74, 0x56, 0x44, 0xa5, 0x75, 0x63, 0x81, 0x6d,
  0x5b, 0x64, 0x32, 0x97, 0x9b, 0x75, 0x92, 0x48, 0xa6, 0x9f, 0x5e, 0x8c,
  0x9a, 0x52, 0xbd, 0x5c, 0xa5, 0x6a, 0x79, 0xb0, 0x86, 0x66, 0xb4, 0x54,
  0xb3, 0x83, 0x6b, 0xa3, 0x7e, 0x76, 0xae, 0x7e, 0x64, 0x8a, 0x62, 0x8c,
  0xa2, 0x64, 0xb2, 0x7e, 0x59, 0x9a, 0x80, 0x93, 0x9d, 0x73, 0x97, 0x8c,
  0xa3, 0x77, 0x88, 0xa4, 0xa3, 0x94, 0x9f, 0xa1, 0x98, 0x88, 0x9f, 0x8b,
  0xb2, 0x6c, 0x9b, 0xa4, 0xa0, 0x84, 0x70, 0x9a, 0xb6, 0x5c, 0xc0, 0x6f,
  0x8c, 0x91, 0x5e, 0xa2, 0x96, 0x57, 0xb0, 0x54, 0x8d, 0x84, 0x6b, 0xa6,
  0xac, 0x86, 0xa0, 0x82, 0x71, 0x8a, 0x89, 0x80, 0x82, 0x99, 0xa4, 0x83,
  0x73, 0x83, 0x61, 0x8d, 0xb4, 0xab, 0x81, 0x95, 0x6c, 0x8b, 0x3a, 0xb4,
  0x5d, 0x88, 0xb1, 0x82, 0x74, 0xb4, 0x38, 0xb2, 0x8b, 0x73, 0xa8, 0xb5,
  0x7b, 0x83, 0x43, 0xcb, 0x94, 0x56, 0x9c, 0x72, 0x90, 0x7c, 0x47, 0xc4,
  0x97, 0x44, 0x9b, 0x60, 0x89, 0x67, 0x6b, 0xc8, 0x8b, 0x79, 0xb7, 0x8e,
  0x8a, 0x71, 0x45, 0xce, 0x86, 0x51, 0x98, 0x7e, 0x7f, 0x77, 0x4c, 0xab,
  0x93, 0x61, 0xbb, 0x6b, 0x93, 0x8a, 0x4b, 0x9f, 0x9e, 0x77, 0x92, 0x3c,
  0xb2, 0x6a, 0x5d, 0x9c, 0x97, 0x71, 0xac, 0x55, 0x8c, 0x65, 0x70, 0x8f,
  0x8f, 0x5b, 0xa9, 0x6e, 0x7d, 0x5d, 0x8e, 0x88, 0x8a, 0x81, 0x9e, 0x8b,
  0x70, 0xa3, 0x7f, 0x94, 0x83, 0x7a, 0x74, 0x76, 0x5d, 0x96, 0x7d, 0x84,
  0xaf, 0x67, 0x94, 0x8d, 0x8d, 0x7b, 0x9a, 0xac, 0xb9, 0x9c, 0xad, 0x9d,
  0x7c, 0x9d, 0x6d, 0x9c, 0xa7, 0x4e, 0xb2, 0x7c, 0x7e, 0x84, 0x92, 0xa5,
  0xb4, 0x52, 0xaa, 0x81, 0x89, 0x83, 0x79, 0x90, 0xa9, 0x6b, 0xb4, 0x9e,
  0x6a, 0x72, 0x66, 0x9a, 0xac, 0x7a, 0x95, 0x71, 0x9f, 0x7b, 0x83, 0x80,
  0x88, 0x86, 0x99, 0x7b, 0x80, 0x8c, 0x6d, 0x70, 0x9e, 0xa9, 0xbb, 0x8b,
  0x73, 0xab, 0x2f, 0xc6, 0x5b, 0x95, 0x91, 0x84, 0x66, 0xa4, 0x4d, 0xbd,
  0x6c, 0x64, 0xb7, 0x8d, 0x80, 0x90, 0x35, 0xc9, 0x88, 0x5c, 0x9a, 0x9e,
  0x86, 0x62, 0x49, 0xc5, 0x8b, 0x56, 0x9c, 0x6e, 0x88, 0x5c, 0x4d, 0xc5,
  0xa0, 0x86, 0x9d, 0x70, 0x9d, 0x8e, 0x5f, 0xa8, 0x93, 0x4e, 0xb7, 0x6c,
  0x6e, 0x5a, 0x52, 0xba, 0x88, 0x67, 0x91, 0x6e, 0xa2, 0x77, 0x48, 0x94,
  0x85, 0x54, 0x8d, 0x60, 0x7a, 0x75, 0x4b, 0x9e, 0x93, 0x5d, 0x9b, 0x59,
  0x86, 0x5f, 0x72, 0x85, 0x88, 0x79, 0xc4, 0x79, 0xac, 0x82, 0x7b, 0x93,
  0x9c, 0x77, 0x7f, 0x79, 0x8c, 0x89, 0x6a, 0x91, 0x90, 0x6d, 0x72, 0x82,
  0x75, 0x8c, 0x8e, 0x8b, 0xa6, 0x7a, 0x80, 0x9f, 0x68, 0x8f, 0x72, 0x8a,
  0xbc, 0x85, 0x92, 0x9e, 0x8d, 0x66, 0x76, 0x97, 0xbc, 0x74, 0xbe, 0x8b,
  0x60, 0x7e, 0x7f, 0x9e, 0x97, 0x7f, 0xa8, 0x7c, 0x89, 0x9e, 0x6a, 0x9d,
  0xa7, 0x6c, 0xb3, 0x8c, 0x7e, 0x65, 0x6d, 0x9a, 0xa2, 0x70, 0xa5, 0x97,
  0x9e, 0x6f, 0x76, 0x7b, 0x93, 0x92, 0xa5, 0x82, 0x71, 0xaf, 0x88, 0x81,
  0x74, 0xa6, 0x9e, 0x59, 0xa8, 0x8c, 0x33, 0xc6, 0x3f, 0x8b, 0xc7, 0x7e,
  0x68, 0x8c, 0x43, 0xc6, 0x7b, 0x59, 0x8e, 0x9d, 0x6b, 0x64, 0x46, 0xd7,
  0x7d, 0x45, 0x97, 0x82, 0x6a, 0x4a, 0x18, 0xed, 0x88, 0x21, 0xb7, 0x5f,
  0x69, 0x62, 0x5c, 0xd4, 0x66, 0x57, 0x9e, 0x5e, 0x7a, 0x85, 0x59, 0xbc,
  0x6b, 0x50, 0xa6, 0x5f, 0x7e, 0x79, 0x3a, 0xb0, 0x75, 0x53, 0x92, 0x52,
  0xa3, 0x6c, 0x3e, 0x9e, 0x71, 0x4e, 0x81, 0x56, 0x7e, 0x79, 0x43, 0xa3,
  0x7f, 0x47, 0xa3, 0x55, 0xa2, 0x55, 0x7a, 0x9b, 0x7b, 0x4d, 0xb8, 0x60,
  0x73, 0xa5, 0x80, 0x89, 0x71, 0x8c, 0x82, 0x6e, 0x6d, 0x63, 0x90, 0x99,
  0x6e, 0x74, 0x97, 0x6f, 0xac, 0x76, 0x97, 0x96, 0x98, 0x90, 0xa4, 0x8c,
  0xa2, 0xaa, 0x90, 0x8b, 0x99, 0x6a, 0x6c, 0xa6, 0x97, 0x72, 0x8a, 0x9f,
  0x95, 0x89, 0xa6, 0x75, 0x90, 0x8d, 0x76, 0xa0, 0xa2, 0x6d, 0xbb, 0x71,
  0x91, 0x6f, 0x77, 0x93, 0xa9, 0x63, 0xbe, 0x6e, 0x7b, 0x8e, 0x6f, 0x9c,
  0xaa, 0x91, 0xb2, 0x90, 0x8c, 0x76, 0x90, 0x77, 0x82, 0x80, 0x9d, 0x71,
  0xa7, 0xa1, 0x8f, 0x85, 0xab, 0xa2, 0x90, 0x8e, 0x74, 0x96, 0x63, 0xcb,
  0x61, 0x8b, 0x91, 0x81, 0x79, 0x68, 0x33, 0xc6, 0x98, 0x81, 0x89, 0x9e,
  0x76, 0x8e, 0x25, 0xef, 0xa6, 0x51, 0x70, 0x91, 0x80, 0x53, 0x2e, 0xdf,
  0x9a, 0x36, 0xad, 0x67, 0x6b, 0x56, 0x21, 0xf3, 0xb7, 0x54, 0xab, 0x6c,
  0x61, 0x6d, 0x40, 0xdd, 0xaa, 0x52, 0xa1, 0x59, 0x8f, 0x66, 0x38, 0xbe,
  0x83, 0x3c, 0x74, 0x5b, 0x90, 0x5c, 0x2a, 0xbe, 0x87, 0x2f, 0x71, 0x53,
  0x8a, 0x90, 0x39, 0x9c, 0xa6, 0x6a, 0xa7, 0x56, 0x82, 0xa9, 0x65, 0xab,
  0xab, 0x72, 0x97, 0x73, 0x99, 0x7b, 0x7b, 0xac, 0x8d, 0x60, 0x7f, 0x83,
  0x9d, 0xa6, 0x5b, 0xa4, 0x97, 0x64, 0x85, 0x71, 0x98, 0x69, 0x6d, 0x9d,
  0x90, 0x8e, 0x94, 0x74, 0x72, 0x8e, 0x7a, 0xaf, 0xb6, 0x96, 0xb4, 0x88,
  0x8e, 0x92, 0x81, 0xa9, 0x97, 0x7a, 0x96, 0x7d, 0x97, 0x54, 0x8a, 0xb4,
  0x9f, 0x5e, 0x95, 0x7f, 0x61, 0xa8, 0x6a, 0x91, 0x98, 0x40, 0xab, 0x9e,
  0x95, 0x80, 0x5b, 0x9a, 0x9d, 0x82, 0x9c, 0x79, 0x73, 0x60, 0x78, 0x97,
  0x9a, 0x93, 0xab, 0x85, 0x6d, 0x7d, 0x93, 0x93, 0x9e, 0x9e, 0x8a, 0xac,
  0x75, 0xaa, 0x73, 0xd9, 0x9f, 0x68, 0x91, 0x72, 0x64, 0x95, 0x58, 0xde,
  0x9a, 0xa5, 0x8d, 0xb0, 0x75, 0x90, 0x71, 0xe6, 0x84, 0x62, 0x6b, 0x7f,
  0x89, 0x6e, 0x50, 0xf1, 0x67, 0x2e, 0xa8, 0x77, 0x82, 0x8a, 0x71, 0xee,
  0x76, 0x92, 0xac, 0x7f, 0x7b, 0x7d, 0x7b, 0xc5, 0xad, 0x4a, 0xa5, 0x76,
  0xa2, 0x89, 0x44, 0xbb, 0x78, 0x53, 0x7c, 0x5c, 0x85, 0x66, 0x42, 0xb8,
  0x85, 0x2d, 0x80, 0x5f, 0x84, 0x72, 0x76, 0xae, 0x94, 0x51, 0x9d, 0x5d,
  0x95, 0x7b, 0x77, 0x93, 0x87, 0x5f, 0x97, 0x91, 0xad, 0x76, 0xa0, 0xa8,
  0x99, 0x6e, 0x9c, 0xa0, 0x84, 0x8e, 0x83, 0x95, 0x7e, 0x7d, 0x87, 0x74,
  0x6b, 0x81, 0x70, 0xa0, 0x87, 0x7f, 0x93, 0x98, 0x75, 0x67, 0x86, 0xa5,
  0x61, 0x95, 0x81, 0xa0, 0x6c, 0x69, 0x98, 0xbd, 0x8f, 0x70, 0x9a, 0xa5,
  0x88, 0x71, 0x70, 0x97, 0x65, 0x45, 0x9d, 0x83, 0x83, 0x73, 0x69, 0xa1,
  0x99, 0x5b, 0xaa, 0x9b, 0x9d, 0x84, 0x7d, 0x7c, 0x84, 0x8d, 0x98, 0x8d,
  0x85, 0x7b, 0x88, 0x76, 0x74, 0x92, 0x95, 0x83, 0x94, 0x92, 0x74, 0x8f,
  0xa4, 0x9f, 0x77, 0x71, 0xa0, 0x7b, 0x64, 0xd4, 0xa3, 0xad, 0xa0, 0x7f,
  0x84, 0xa6, 0x49, 0xe4, 0xa5, 0xbc, 0x93, 0xae, 0x9d, 0x86, 0x56, 0xe3,
  0xc2, 0x76, 0x7e, 0x90, 0x84, 0x7c, 0x65, 0xe9, 0x96, 0x4e, 0x9e, 0x61,
  0x7f, 0x6d, 0x60, 0xc2, 0xca, 0x7a, 0x5e, 0x84, 0x87, 0x9a, 0x66, 0xb1,
  0xa1, 0x5c, 0x8f, 0x84, 0x88, 0x92, 0x51, 0xac, 0xaf, 0x2c, 0x91, 0x61,
  0x63, 0x95, 0x51, 0xb7, 0x95, 0x33, 0x6d, 0x69, 0x95, 0xac, 0x6c, 0xa3,
  0x9c, 0x1c, 0x84, 0x8b, 0x81, 0x82, 0x81, 0xa0, 0x86, 0x52, 0x60, 0x8a,
  0x71, 0x9c, 0x88, 0x98, 0x8b, 0x64, 0xa8, 0x9f, 0x94, 0x80, 0x6f, 0x8f,
  0x81, 0x95, 0x6b, 0x85, 0x8b, 0xa5, 0x68, 0xa0, 0xab, 0x8d, 0x85, 0x94,
  0x80, 0x90, 0x74, 0x98, 0x93, 0x80, 0x82, 0xb8, 0xaf, 0x94, 0x6d, 0xa9,
  0xb3, 0x5c, 0xa2, 0x66, 0x91, 0xa4, 0x7f, 0x9b, 0xa0, 0x27, 0x73, 0x88,
  0x81, 0x66, 0x81, 0xa5, 0x8f, 0x5d, 0x91, 0x8b, 0x9f, 0x96, 0x6e, 0x9c,
  0x89, 0x62, 0x83, 0x7d, 0x82, 0x8f, 0x51, 0x6d, 0x8e, 0xa8, 0x74, 0x60,
  0x71, 0x72, 0x7d, 0x89, 0x70, 0xa1, 0x7d, 0x75, 0x83, 0xa5, 0x7a, 0x8a,
  0x94, 0x72, 0xb1, 0x9e, 0x82, 0x6e, 0x73, 0x67, 0xae, 0x73, 0x93, 0x80,
  0x8b, 0x74, 0xaf, 0xa6, 0x92, 0xa8, 0x95, 0x8b, 0x9d, 0xa9, 0x96, 0x82,
  0x8b, 0x9d, 0x8a, 0x78, 0x87, 0x94, 0x99, 0x96, 0x80, 0x97, 0x98, 0xa3,
  0x6e, 0x9c, 0xa1, 0x85, 0x86, 0x8f, 0x87, 0x93, 0x86, 0x87, 0x78, 0x9d,
  0x99, 0x62, 0x8f, 0x8e, 0x6c, 0x7c, 0x78, 0xa9, 0x8c, 0xb1, 0x97, 0x73,
  0x7f, 0x9e, 0xa9, 0x90, 0x9d, 0x87, 0x86, 0x8c, 0x8e, 0x76, 0x68, 0x66,
  0x9e, 0xab, 0x76, 0x61, 0x6d, 0x8d, 0x97, 0x92, 0x94, 0x59, 0x9f, 0x82,
  0x92, 0x8e, 0x7c, 0x7b, 0x94, 0x94, 0x8f, 0x81, 0x8e, 0x7f, 0x8f, 0xa5,
  0x7e, 0x8b, 0x83, 0x7a, 0x7b, 0x7d, 0x84, 0x71, 0x9b, 0x77, 0x86, 0x9a,
  0x80, 0x78, 0x81, 0x63, 0xaa, 0x79, 0x7b, 0x82, 0x8b, 0x7a, 0x5a, 0x87,
  0x9f, 0xab, 0x81, 0x99, 0x9b, 0x84, 0x6c, 0x89, 0x94, 0x74, 0x9a, 0x90,
  0x6f, 0x98, 0x64, 0x94, 0x9d, 0x6d, 0x77, 0x80, 0x74, 0x79, 0x76, 0x9a,
  0x93, 0x92, 0x7a, 0x74, 0x87, 0x94, 0xb3, 0xad, 0x7a, 0x98, 0x8b, 0x8c,
  0xa4, 0xa9, 0x7b, 0x8e, 0x95, 0x9a, 0x9e, 0x9c, 0x97, 0x62, 0x77, 0x94,
  0x99, 0x89, 0x99, 0x8e, 0x66, 0x72, 0x8e, 0x74, 0x79, 0x7b, 0x90, 0x8f,
  0x73, 0x7d, 0x73, 0x93, 0x81, 0x9c, 0x7e, 0x78, 0x9d, 0x99, 0x91, 0x77,
  0x66, 0x84, 0x93, 0x8a, 0x86, 0x7c, 0x63, 0x72, 0x73, 0xaf, 0x82, 0xa4,
  0x5a, 0x85, 0x6c, 0x7b, 0xa2, 0x8b, 0x75, 0x9e, 0x89, 0x76, 0x7e, 0x76,
  0x8c, 0x78, 0x6c, 0x76, 0x6e, 0x90, 0x7d, 0x8e, 0xba, 0x7f, 0x5f, 0x8f,
  0x69, 0x9a, 0x8c, 0x7e, 0x9b, 0x7b, 0x6d, 0x8d, 0x83, 0x7e, 0x7d, 0x8c,
  0x9d, 0x7e, 0x7a, 0x97, 0xa7, 0x5f, 0x7d, 0x6d, 0x8b, 0x8d, 0x80, 0x7b,
  0x71, 0x93, 0x5d, 0x7d, 0x8c, 0x67, 0x90, 0x98, 0x6a, 0xa1, 0x8b, 0x78,
  0x90, 0x70, 0x76, 0x7b, 0x8c, 0x95, 0x76, 0x7e, 0x98, 0x62, 0x92, 0x67,
  0x6b, 0x71, 0x81, 0x86, 0x96, 0x88, 0x7f, 0x6f, 0x70, 0x7f, 0xb2, 0x96,
  0xa7, 0x8b, 0x83, 0xab, 0x5c, 0x65, 0x82, 0x82, 0x9a, 0x7f, 0xaa, 0x92,
  0x94, 0x6d, 0x79, 0x8d, 0x7f, 0x6e, 0x78, 0x8e, 0x8e, 0x62, 0x61, 0xab,
  0x6d, 0x8e, 0x78, 0x9d, 0x8f, 0x6a, 0x95, 0x97, 0x90, 0x88, 0x88, 0xb1,
  0xab, 0x7c, 0x8a, 0x8f, 0x9c, 0x84, 0x7c, 0xa7, 0x79, 0x89, 0x76, 0xb1,
  0x65, 0x7a, 0x70, 0x81, 0xb3, 0x9c, 0x62, 0x73, 0x6e, 0xa0, 0x7e, 0xa2,
  0x7b, 0x68, 0x80, 0x8c, 0x57, 0x88, 0x74, 0x96, 0xa3, 0x89, 0x93, 0x88,
  0x71, 0x6a, 0x7d, 0xae, 0xa8, 0x67, 0x81, 0x7b, 0x89, 0x99, 0x7f, 0x7b,
  0xaa, 0x96, 0x93, 0x8b, 0x9f, 0x8f, 0x71, 0x64, 0x63, 0x92, 0x86, 0xb5,
  0xb0, 0x74, 0x76, 0x90, 0x73, 0x6d, 0x8a, 0x90, 0x91, 0x8d, 0x87, 0x6e,
  0x5f, 0xa3, 0x99, 0x7c, 0x8a, 0x86, 0x9b, 0x64, 0x69, 0x8e, 0x86, 0x89,
  0x74, 0x9f, 0x7f, 0x6e, 0x99, 0x76, 0x9c, 0x89, 0x88, 0x8e, 0x5e, 0x77,
  0x65, 0x80, 0x7d, 0x8f, 0x72, 0x6f, 0x8e, 0x74, 0xa7, 0x83, 0x9c, 0x6a,
  0x95, 0x92, 0x98, 0x61, 0x9c, 0x8b, 0x83, 0x6d, 0x9a, 0x7c, 0x9a, 0x5b,
  0xa3, 0x81, 0xac, 0xb1, 0x90, 0x81, 0x88, 0x95, 0x87, 0x8b, 0xac, 0xa8,
  0x90, 0x85, 0x7c, 0x98, 0x79, 0xa4, 0x7c, 0x95, 0x8f, 0x87, 0x6c, 0xa7,
  0x5b, 0x93, 0x88, 0x8c, 0x70, 0xbe, 0x6f, 0x7b, 0x9c, 0x7a, 0x9e, 0x8e,
  0x8e, 0xa8, 0x95, 0x8e, 0x9b, 0x9a, 0x8d, 0x91, 0x8f, 0x93, 0x6e, 0x85,
  0x65, 0xa0, 0x74, 0xb2, 0x6e, 0x7f, 0xa7, 0x8c, 0x8f, 0x6a, 0x79, 0x80,
  0x42, 0x90, 0x84, 0xab, 0xac, 0x81, 0xa1, 0x81, 0x54, 0x9d, 0x7f, 0x7e,
  0x7a, 0x8c, 0x96, 0x8e, 0x65, 0x98, 0x8a, 0x5e, 0x74, 0x9a, 0x98, 0x72,
  0x85, 0x98, 0x6d, 0x97, 0x77, 0x8a, 0x87, 0x89, 0xa1, 0xa0, 0x7a, 0x85,
  0x64, 0x7e, 0x96, 0x79, 0xa7, 0xa1, 0x97, 0xb2, 0x7a, 0x88, 0xb8, 0x83,
  0x9e, 0x83, 0x88, 0xae, 0x82, 0x90, 0xad, 0x8c, 0x83, 0x97, 0xac, 0x76,
  0x72, 0x8c, 0x96, 0x89, 0xa2, 0x75, 0x85, 0x69, 0x7e, 0x69, 0x93, 0x64,
  0x80, 0x98, 0x6a, 0x8d, 0xa0, 0x9b, 0x7b, 0xa1, 0x73, 0x87, 0x81, 0x6b,
  0x99, 0x97, 0x74, 0x7a, 0x90, 0x88, 0x8c, 0x85, 0x86, 0x8e, 0x8e, 0x70,
  0xa8, 0xa6, 0x7d, 0x7a, 0x76, 0x9b, 0x7d, 0x81, 0x94, 0x9a, 0x86, 0x6f,
  0x80, 0xb1, 0x90, 0x96, 0x70, 0x83, 0x89, 0x7b, 0x72, 0x58, 0x9e, 0x9f,
  0x96, 0x8a, 0x6b, 0x9d, 0x70, 0xa2, 0x97, 0xa7, 0x6c, 0xc5, 0x71, 0x88,
  0x9c, 0x9c, 0xa0, 0x75, 0x98, 0x90, 0x93, 0x9d, 0x80, 0x8d, 0x8e, 0x97,
  0xa3, 0x7b, 0x8c, 0x7b, 0x83, 0x90, 0x7c, 0x9f, 0x64, 0xad, 0x66, 0x7a,
  0x9f, 0x76, 0xa9, 0x9d, 0x4f, 0xc4, 0x90, 0x8b, 0xa4, 0x7e, 0x8a, 0x80,
  0x3b, 0xc1, 0x88, 0xb2, 0x6e, 0x81, 0x93, 0x6f, 0x51, 0x97, 0x66, 0x84,
  0xa7, 0x9e, 0xb2, 0x69, 0x8d, 0xa5, 0x89, 0xa7, 0x6d, 0x68, 0x8f, 0x6d,
  0xa2, 0x96, 0x68, 0x9a, 0x98, 0x95, 0xb3, 0x90, 0xa2, 0x79, 0x9c, 0x86,
  0xa0, 0x74, 0x9d, 0x77, 0x99, 0x69, 0x78, 0x9f, 0x93, 0x77, 0xa4, 0x7d,
  0xa1, 0x93, 0x82, 0x6e, 0x6f, 0x85, 0xa2, 0x64, 0x87, 0xab, 0x8a, 0x90,
  0xa2, 0x87, 0x87, 0x6d, 0x75, 0xc0, 0x9e, 0x69, 0xaf, 0x6c, 0x94, 0x8b,
  0x7d, 0x88, 0x7e, 0x73, 0xa0, 0x9a, 0x70, 0x6e, 0x94, 0x9a, 0x74, 0x96,
  0x68, 0xa3, 0x84, 0x80, 0x91, 0xaa, 0x7f, 0xa5, 0x84, 0x70, 0x84, 0x8a,
  0x94, 0xc5, 0x9e, 0x74, 0x6a, 0x7f, 0x64, 0x95, 0x8f, 0x89, 0x92, 0x7d,
  0x74, 0x89, 0x93, 0x95, 0x84, 0x72, 0x9e, 0x9d, 0x86, 0x83, 0x90, 0x75,
  0x6e, 0xb4, 0x89, 0x78, 0x6e, 0xab, 0xa6, 0x8b, 0x8e, 0xb1, 0x73, 0x95,
  0xa6, 0x94, 0xa3, 0x9e, 0x98, 0x88, 0x74, 0x89, 0x8b, 0x8d, 0xb0, 0x91,
  0x59, 0x94, 0x97, 0x7c, 0x7a, 0xaf, 0xb4, 0x8e, 0x4b, 0xd6, 0x8d, 0xa4,
  0xa3, 0x7a, 0xaa, 0x8b, 0x46, 0xca, 0x85, 0x88, 0x7e, 0xa4, 0x88, 0x8b,
  0x52, 0xb8, 0x82, 0x7d, 0x61, 0x75, 0x97, 0x83, 0x85, 0x93, 0x83, 0x82,
  0x91, 0xa2, 0x97, 0x81, 0xa6, 0xa1, 0x81, 0x90, 0x79, 0x6b, 0x84, 0x93,
  0xb3, 0x6f, 0x80, 0x6c, 0x75, 0xaf, 0xb2, 0x87, 0x8b, 0x94, 0x87, 0x87,
  0x98, 0xaa, 0xa2, 0x88, 0x7f, 0xa2, 0x8f, 0x88, 0x6c, 0x9c, 0x95, 0x83,
  0x74, 0x83, 0x7a, 0x8d, 0x72, 0x7b, 0x90, 0x7f, 0x74, 0xa2, 0x6c, 0x9e,
  0x9b, 0x83, 0x78, 0x81, 0x6a, 0xa6, 0x73, 0x7d, 0x74, 0xa6, 0x72, 0x66,
  0x98, 0xb5, 0x8b, 0x64, 0xa8, 0x81, 0x7d, 0x77, 0xa4, 0xc5, 0x97, 0x8f,
  0x6a, 0x7d, 0x6e, 0x86, 0x98, 0xc0, 0x60, 0x78, 0x93, 0x8c, 0x75, 0x95,
  0x84, 0x93, 0x74, 0x63, 0x5d, 0x95, 0x90, 0x98, 0x78, 0x7a, 0x92, 0x77,
  0x82, 0x6b, 0xa6, 0x85, 0x94, 0xac, 0x77, 0x98, 0x60, 0xac, 0xaf, 0x8b,
  0x8d, 0xa3, 0x78, 0xa1, 0x93, 0x85, 0x92, 0x9e, 0x92, 0x90, 0x6b, 0x8f,
  0x7c, 0x6e, 0xb0, 0x8f, 0x5c, 0x9c, 0x95, 0x83, 0x82, 0xa2, 0xc2, 0x8e,
  0x5a, 0xd3, 0x80, 0x98, 0x8d, 0x9b, 0xbe, 0x81, 0x2a, 0xc8, 0x7b, 0x8f,
  0x58, 0xa3, 0x9b, 0x85, 0x50, 0xb3, 0x91, 0x74, 0x72, 0x98, 0xb1, 0x95,
  0x80, 0xb7, 0x6a, 0xa5, 0x79, 0x93, 0xa9, 0x9e, 0xb0, 0x8e, 0x6c, 0x85,
  0x7d, 0x80, 0x9d, 0xa1, 0xa8, 0xa1, 0xa2, 0x92, 0x63, 0x90, 0xc0, 0xa2,
  0xac, 0x9d, 0x5e, 0x76, 0x75, 0x82, 0xaf, 0x8c, 0x9c, 0x8e, 0x7f, 0xa1,
  0x89, 0x74, 0xa4, 0x8f, 0x7a, 0x8f, 0x8a, 0x92, 0xac, 0x7e, 0x8e, 0x86,
  0x63, 0x88, 0x9a, 0x8e, 0x79, 0x7a, 0xab, 0x84, 0x71, 0xa6, 0x6b, 0x89,
  0xa4, 0x8e, 0x83, 0x75, 0x9a, 0xc3, 0x75, 0xa5, 0x7f, 0x6b, 0x82, 0x82,
  0xad, 0xd4, 0x7d, 0x8c, 0x9a, 0x72, 0x64, 0x8e, 0x95, 0xcd, 0x80, 0x99,
  0x8b, 0xa4, 0x7b, 0x8a, 0xa2, 0xb3, 0x68, 0x93, 0x83, 0xa6, 0x83, 0x9d,
  0x77, 0x99, 0x6f, 0x91, 0x7c, 0x60, 0x76, 0x8e, 0x9f, 0xb1, 0xa7, 0x93,
  0x91, 0xaf, 0x9a, 0x90, 0x8d, 0x8f, 0x6e, 0x8a, 0x7e, 0x6b, 0x9d, 0x8f,
  0x91, 0x84, 0x66, 0x93, 0x83, 0x96, 0xac, 0x80, 0x58, 0x9d, 0x8e, 0x7f,
  0x95, 0xa3, 0xca, 0x7d, 0x51, 0xe9, 0x6f, 0xc0, 0x7e, 0xb3, 0xb1, 0x8c,
  0x32, 0xda, 0x97, 0xbd, 0x86, 0x86, 0x8b, 0x8d, 0x5d, 0xb6, 0x75, 0xa8,
  0x89, 0x68, 0xb7, 0x7f, 0x78, 0x9a, 0x7c, 0x86, 0x87, 0xa4, 0xa5, 0xa3,
  0x9c, 0xba, 0x76, 0x6e, 0x7d, 0x8e, 0x96, 0x9b, 0xa5, 0x7f, 0x72, 0x84,
  0x8c, 0x96, 0xae, 0x96, 0xb5, 0x87, 0x72, 0x7a, 0x7f, 0x64, 0xbd, 0xa1,
  0x9e, 0xab, 0x9b, 0x7d, 0x86, 0x80, 0x94, 0x91, 0x70, 0xb0, 0x80, 0x87,
  0x8f, 0x83, 0x90, 0x99, 0x7b, 0x99, 0x80, 0x78, 0x70, 0x82, 0x84, 0xa5,
  0x7f, 0xa6, 0x71, 0x94, 0x9b, 0x8d, 0x7c, 0x95, 0xac, 0xcc, 0x62, 0x81,
  0x8c, 0xa1, 0x73, 0x9b, 0xb6, 0xc7, 0x6b, 0x9f, 0x73, 0x6b, 0x66, 0xa4,
  0xa3, 0xc5, 0x72, 0x7d, 0xa0, 0x8a, 0x51, 0xa3, 0x80, 0xab, 0x8d, 0x8d,
  0x91, 0x9c, 0x64, 0x9c, 0x6e, 0x9c, 0x83, 0xa4, 0x93, 0x9c, 0x86, 0xa8,
  0x7f, 0xa4, 0x81, 0x75, 0x7c, 0xad, 0xa5, 0x90, 0x99, 0x8b, 0x7a, 0x8f,
  0x74, 0x9a, 0x93, 0x9f, 0x98, 0x94, 0x90, 0x87, 0x71, 0x82, 0xaa, 0xa0,
  0x65, 0xa8, 0x7d, 0x9a, 0x6b, 0x9d, 0xbf, 0x8f, 0x30, 0xdb, 0x86, 0xbc,
  0xa3, 0x90, 0x9e, 0x9d, 0x32, 0xc9, 0x71, 0xb0, 0x86, 0x84, 0x90, 0x89,
  0x51, 0x9c, 0x7d, 0x83, 0x80, 0x99, 0x95, 0x83, 0x91, 0xbb, 0x79, 0x7b,
  0x93, 0x89, 0x9b, 0x96, 0xa2, 0xa2, 0x7e, 0x6c, 0x6f, 0x66, 0xb4, 0x99,
  0xb3, 0x8c, 0x7f, 0x6f, 0x56, 0x7a, 0xb7, 0xaa, 0xa9, 0xb3, 0x9d, 0x8a,
  0x6e, 0x5e, 0x9d, 0xa5, 0x8f, 0x8f, 0x5e, 0x8f, 0xa8, 0x87, 0xa4, 0x93,
  0x80, 0xa9, 0x72, 0x8e, 0x83, 0x8d, 0xb4, 0x93, 0x6c, 0xa1, 0x84, 0x78,
  0x6d, 0x8a, 0x84, 0x97, 0x93, 0xa4, 0x6c, 0x89, 0xa1, 0x83, 0x80, 0x9d,
  0x8a, 0xbe, 0x63, 0x9b, 0x9b, 0x82, 0x80, 0xa0, 0xb3, 0xbc, 0x79, 0x85,
  0x98, 0x77, 0x6e, 0x9d, 0xa9, 0xc8, 0x80, 0x72, 0x9a, 0x9f, 0x6a, 0x9a,
  0x7d, 0xad, 0x6a, 0x80, 0x95, 0x7e, 0x7f, 0x91, 0x6b, 0x8d, 0xa6, 0x82,
  0xa0, 0xa0, 0x78, 0x84, 0x92, 0xb2, 0x66, 0x8a, 0x78, 0xa9, 0x9b, 0x89,
  0x8d, 0x83, 0x99, 0x95, 0x77, 0x70, 0xa8, 0x9d, 0xa0, 0x80, 0x75, 0xa9,
  0x59, 0x8b, 0xa9, 0x81, 0x5e, 0xa8, 0x99, 0x96, 0x87, 0xb1, 0xb5, 0x91,
  0x4e, 0xcd, 0x73, 0xc6, 0x98, 0x8f, 0xb9, 0x90, 0x3f, 0xd3, 0x97, 0xa9,
  0x82, 0x85, 0x8b, 0x96, 0x4b, 0xa4, 0x66, 0xa3, 0x9f, 0x85, 0x82, 0x92,
  0x6b, 0xa0, 0x7b, 0x7d, 0x6e, 0x7c, 0x8c, 0xb3, 0xb2, 0xa1, 0x74, 0x4b,
  0xaa, 0x66, 0xb2, 0x8a, 0xbf, 0x99, 0x9e, 0x5c, 0x85, 0xa0, 0xbf, 0x9f,
  0x9b, 0xab, 0x6c, 0x7e, 0x72, 0x64, 0xc1, 0x8d, 0x80, 0x9d, 0x68, 0x8d,
  0x88, 0x82, 0xa6, 0xa7, 0x8e, 0xa9, 0x80, 0x8c, 0xa8, 0x9e, 0xa6, 0x98,
  0x7f, 0x8e, 0x8b, 0x7e, 0x70, 0x5e, 0xaa, 0xa5, 0x75, 0xa6, 0x68, 0x84,
  0x62, 0x64, 0x87, 0xb7, 0x98, 0xca, 0x62, 0x9b, 0x92, 0x5f, 0x72, 0x9a,
  0xb3, 0xbb, 0xa3, 0x74, 0x63, 0x94, 0x7e, 0xa3, 0x93, 0xa0, 0x77, 0x87,
  0x8c, 0x80, 0x8b, 0x9e, 0x9c, 0xb1, 0x8d, 0x93, 0x85, 0x77, 0x75, 0x9b,
  0x67, 0x8d, 0x9e, 0x7f, 0x9f, 0x7d, 0x8a, 0xa4, 0x86, 0xaa, 0x7f, 0x78,
  0x80, 0x9b, 0x8a, 0x86, 0x8f, 0x73, 0x96, 0x9a, 0x89, 0x7d, 0x8c, 0xab,
  0x9a, 0x88, 0x7f, 0x9b, 0x84, 0x7e, 0xaa, 0x84, 0x56, 0xc4, 0x83, 0x7c,
  0x93, 0x71, 0xab, 0x91, 0x49, 0xc9, 0x8e, 0xbc, 0x94, 0x8c, 0x9d, 0x92,
  0x3e, 0xc4, 0x83, 0xb8, 0x76, 0x7f, 0x88, 0x91, 0x55, 0x8b, 0x78, 0x93,
  0x8e, 0x8c, 0x9a, 0xa7, 0x83, 0xa4, 0x6a, 0x69, 0x9f, 0x60, 0xb0, 0x9f,
  0xa5, 0x98, 0x8a, 0x64, 0x73, 0x7d, 0x9c, 0x8c, 0xab, 0x84, 0x79, 0x78,
  0xa8, 0xa1, 0xbb, 0xaa, 0xb5, 0xa5, 0x92, 0x83, 0x63, 0x77, 0xb5, 0xa9,
  0xa8, 0x8a, 0x62, 0x90, 0x94, 0x7c, 0xc0, 0xa7, 0x89, 0xa9, 0x81, 0x7f,
  0x90, 0x79, 0xad, 0x9c, 0x67, 0x98, 0x85, 0x75, 0x72, 0x5d, 0x89, 0xad,
  0x84, 0xa0, 0x7d, 0x7c, 0x63, 0x86, 0x90, 0xa3, 0xa6, 0xb7, 0x82, 0x8e,
  0x86, 0x7d, 0x77, 0x9e, 0xb0, 0xd6, 0x7f, 0x75, 0x7b, 0x74, 0x7b, 0x8d,
  0xa5, 0xb2, 0x75, 0x91, 0x8b, 0x7c, 0x86, 0x9e, 0x94, 0x8e, 0x60, 0x81,
  0x5c, 0x8b, 0x68, 0xac, 0x6f, 0x9f, 0x9a, 0xa1, 0x81, 0x81, 0x8f, 0xa3,
  0x8a, 0xa8, 0x7b, 0x6d, 0x93, 0x9c, 0x8c, 0x76, 0xa2, 0x83, 0x91, 0x8d,
  0x87, 0x95, 0x91, 0x9a, 0x8e, 0x9d, 0x73, 0x92, 0x8c, 0x95, 0xbb, 0x8c,
  0x51, 0xc2, 0x8c, 0x86, 0x84, 0xaf, 0xad, 0x9b, 0x47, 0xdc, 0x80, 0xce,
  0x9b, 0xb2, 0xa4, 0x91, 0x39, 0xc0, 0x9d, 0xb1, 0x77, 0x88, 0x9a, 0x96,
  0x68, 0xa4, 0x77, 0x88, 0x77, 0x88, 0x88, 0x96, 0x75, 0xa2, 0x70, 0x65,
  0x87, 0x6c, 0xa3, 0x8e, 0xa7, 0xae, 0x9a, 0x6d, 0x8e, 0x86, 0xba, 0xa5,
  0xa9, 0xaa, 0x87, 0x80, 0x6d, 0x71, 0xc5, 0xa0, 0xa9, 0xb1, 0x91, 0x8c,
  0x89, 0x5d, 0xbf, 0x9a, 0x95, 0x9f, 0x7f, 0x94, 0x69, 0x9f, 0xad, 0xb4,
  0x8b, 0xbe, 0x65, 0x8a, 0x62, 0x93, 0x94, 0x9f, 0x63, 0x82, 0x93, 0x7c,
  0x77, 0x5a, 0x93, 0xa1, 0x94, 0x97, 0x63, 0x77, 0x91, 0x6e, 0x94, 0xac,
  0x9f, 0xa7, 0x74, 0x88, 0xa0, 0x90, 0x70, 0xaa, 0xb4, 0xd1, 0x6b, 0x82,
  0x87, 0x68, 0x82, 0x9f, 0xaa, 0xa8, 0x77, 0x82, 0x82, 0x8a, 0x7b, 0xa6,
  0xa5, 0xac, 0x8b, 0x67, 0x7a, 0x6d, 0x7e, 0xbb, 0x85, 0x88, 0x9f, 0x9d,
  0x70, 0xa1, 0x89, 0x93, 0x82, 0x9e, 0x94, 0x8e, 0x8e, 0x93, 0x94, 0x8f,
  0x93, 0x7a, 0x78, 0x90, 0x8c, 0x89, 0x8a, 0x96, 0x92, 0x9e, 0x7c, 0xa6,
  0xa0, 0x7b, 0xa2, 0x83, 0x56, 0xca, 0x7d, 0xad, 0x9a, 0x78, 0xa4, 0x7d,
  0x42, 0xef, 0x7b, 0xca, 0xa0, 0xbc, 0xb6, 0x7d, 0x57, 0x9a, 0x80, 0xc5,
  0xab, 0x7e, 0x8d, 0x8b, 0x62, 0x8b, 0x5c, 0x7a, 0x88, 0x66, 0x8e, 0x86,
  0x77, 0x9c, 0x8a, 0x68, 0x8c, 0x97, 0x7f, 0x9a, 0x98, 0x98, 0x6e, 0x62,
  0x65, 0xa1, 0xaa, 0x9b, 0x9d, 0x7b, 0x87, 0x7b, 0x6e, 0x75, 0xb1, 0x9b,
  0xa7, 0xb7, 0x7d, 0x95, 0x80, 0x73, 0xc0, 0x9d, 0xb0, 0xb8, 0xa5, 0x85,
  0x85, 0x6c, 0xae, 0x9c, 0x87, 0x9b, 0x8e, 0x78, 0x98, 0x95, 0x98, 0x9d,
  0x6f, 0x73, 0x9c, 0x87, 0x8a, 0x83, 0x99, 0xa3, 0x8c, 0x88, 0x7f, 0x6b,
  0x93, 0x6f, 0x8d, 0xa1, 0xa4, 0xae, 0x6d, 0x74, 0x9c, 0x78, 0x87, 0x8d,
  0x9c, 0xcc, 0x75, 0x93, 0x63, 0x6a, 0x7c, 0xab, 0x90, 0xa5, 0x8e, 0x9f,
  0xa1, 0x83, 0x77, 0x9c, 0x94, 0xb7, 0x86, 0x6e, 0x72, 0x61, 0x7b, 0x9c,
  0x83, 0x88, 0xaa, 0x9c, 0x97, 0x70, 0x76, 0x9c, 0xa0, 0xb2, 0x8b, 0x8c,
  0x7f, 0x95, 0x92, 0x8b, 0x9e, 0x89, 0x7b, 0x94, 0x68, 0x8a, 0x96, 0x95,
  0x7f, 0xa6, 0x5d, 0x98, 0x6f, 0xbf, 0x98, 0x88, 0x56, 0xd0, 0x6a, 0x87,
  0xa3, 0xa8, 0xb0, 0x88, 0x58, 0xd5, 0x92, 0xcc, 0x87, 0x88, 0x99, 0x8d,
  0x52, 0xbd, 0x6a, 0xbd, 0x9a, 0x80, 0x94, 0x9b, 0x62, 0x8e, 0x8b, 0x7c,
  0x94, 0x69, 0x9b, 0x95, 0x74, 0x8d, 0x63, 0x71, 0x83, 0x7f, 0x96, 0x93,
  0x9e, 0xa3, 0x7d, 0x73, 0x86, 0x88, 0xa5, 0x92, 0xa7, 0x9e, 0x7f, 0x85,
  0x97, 0x83, 0xbf, 0x92, 0xa6, 0xaa, 0x7b, 0x79, 0x68, 0x60, 0xb5, 0x94,
  0x87, 0xb5, 0x75, 0x7b, 0x8d, 0x7c, 0xa8, 0x8e, 0x98, 0xc6, 0x72, 0x97,
  0x58, 0x9c, 0x8a, 0xa4, 0x65, 0x85, 0x95, 0x89, 0x89, 0x53, 0x6c, 0x95,
  0x9f, 0x89, 0x8d, 0x70, 0x77, 0x61, 0x89, 0xa3, 0xa8, 0x9e, 0x77, 0x75,
  0xa3, 0x71, 0x8e, 0xab, 0xb9, 0xca, 0x6a, 0x86, 0x7e, 0x9b, 0x83, 0x9f,
  0xa2, 0xb1, 0x81, 0x80, 0x9d, 0x55, 0x7f, 0xa5, 0x95, 0xb4, 0x90, 0x81,
  0x94, 0x65, 0x74, 0xa6, 0x6b, 0xa0, 0x8d, 0x9e, 0x88, 0x6e, 0x8a, 0x9c,
  0x99, 0xa9, 0x78, 0xa0, 0x76, 0x93, 0x84, 0x83, 0x85, 0xab, 0x76, 0x89,
  0x60, 0x8b, 0x8d, 0x8f, 0x78, 0xa3, 0x56, 0xa8, 0x84, 0x94, 0xa5, 0x74,
  0x61, 0xbe, 0x6b, 0x89, 0x97, 0xa7, 0xac, 0x66, 0x5b, 0xe4, 0x7b, 0xbc,
  0x70, 0x85, 0x8e, 0x9f, 0x58, 0xab, 0x9b, 0xdb, 0x99, 0xa2, 0x98, 0x99,
  0x66, 0x82, 0x87, 0xa5, 0x77, 0x82, 0x7c, 0xa5, 0x82, 0x70, 0x52, 0x6a,
  0x87, 0x71, 0x7e, 0x9f, 0x9e, 0xa2, 0x7d, 0x82, 0x6b, 0x9a, 0x99, 0x99,
  0x9c, 0x90, 0x8a, 0x84, 0xb3, 0x82, 0xbb, 0x9d, 0x97, 0xc6, 0x6d, 0x8a,
  0x73, 0x76, 0xcc, 0xaa, 0xaa, 0xaa, 0x8a, 0x82, 0x5c, 0x72, 0xab, 0x9b,
  0x8a, 0xad, 0x8d, 0x8d, 0xa4, 0xa5, 0x98, 0xaf, 0x81, 0x62, 0x89, 0x86,
  0x5d, 0x70, 0x7d, 0xa8, 0x93, 0x79, 0x6b, 0x6d, 0xa0, 0x81, 0x7c, 0xad,
  0xa2, 0xb5, 0x6b, 0x7e, 0x99, 0x70, 0x90, 0xae, 0xa4, 0xc7, 0x94, 0x8b,
  0x71, 0xa2, 0x71, 0x9e, 0xb1, 0xb0, 0x8c, 0x93, 0x75, 0x8f, 0x6c, 0x9f,
  0x9a, 0xc0, 0x92, 0x78, 0x7e, 0x8b, 0x91, 0xbd, 0x85, 0x8e, 0x93, 0x77,
  0x81, 0x96, 0x5c, 0xa9, 0x97, 0x93, 0x9d, 0x72, 0x94, 0xa2, 0x94, 0x7b,
  0x8a, 0x7f, 0x97, 0x99, 0x7d, 0x91, 0x8c, 0xa1, 0x82, 0xc6, 0x73, 0x90,
  0xa3, 0xb3, 0x9d, 0x86, 0x5a, 0xd2, 0x65, 0x6f, 0x91, 0xaa, 0xaa, 0x73,
  0x51, 0xea, 0x69, 0xd7, 0x88, 0xaa, 0xa6, 0x8a, 0x64, 0xa5, 0x6f, 0xcb,
  0xa0, 0x97, 0x89, 0x8c, 0x73, 0xa1, 0x73, 0xa6, 0xa3, 0x5c, 0xa3, 0xa2,
  0x92, 0x8d, 0x69, 0x6a, 0x88, 0xa0, 0x8b, 0x8c, 0x95, 0xa9, 0x7b, 0x74,
  0x67, 0x85, 0xaa, 0x84, 0xa0, 0xa2, 0x9c, 0x81, 0x97, 0x97, 0xc3, 0xa6,
  0x91, 0xa6, 0x65, 0x98, 0x78, 0x98, 0xcf, 0x8d, 0x98, 0xbf, 0x85, 0x93,
  0xa4, 0x7b, 0xa9, 0x96, 0x8a, 0xa0, 0x97, 0x88, 0x74, 0xb3, 0x98, 0xab,
  0x7c, 0x7b, 0x97, 0x74, 0x8d, 0x7f, 0x87, 0x99, 0x84, 0x95, 0x92, 0x84,
  0x72, 0x6e, 0x8a, 0x8e, 0x83, 0xbd, 0x7c, 0x92, 0x90, 0x85, 0x8d, 0xb9,
  0xa8, 0xe3, 0x7d, 0x9a, 0x70, 0x7c, 0x80, 0x95, 0xb1, 0xab, 0x9d, 0xa3,
  0x82, 0x70, 0x88, 0x9d, 0xa4, 0xaa, 0x7d, 0x91, 0x71, 0x97, 0x5e, 0xa7,
  0x95, 0x87, 0x8a, 0x80, 0x98, 0x74, 0x73, 0x9a, 0x7b, 0xad, 0xa6, 0xa0,
  0x86, 0xb2, 0xa0, 0x87, 0x86, 0x84, 0x91, 0x89, 0x89, 0x8f, 0x8f, 0x9b,
  0x86, 0xb5, 0x62, 0x89, 0x6e, 0xaa, 0x97, 0x7a, 0x68, 0xc1, 0x84, 0x94,
  0x96, 0x9a, 0x95, 0x77, 0x4a, 0xda, 0x64, 0xc1, 0x5f, 0xa7, 0x87, 0x94,
  0x4c, 0xb1, 0x7d, 0xe5, 0x6a, 0x7b, 0x89, 0x84, 0x7d, 0x88, 0x56, 0xa2,
  0x85, 0x68, 0x93, 0x8e, 0x95, 0xa0, 0x5c, 0x85, 0x6b, 0x75, 0x8b, 0x79,
  0x8f, 0xa1, 0x76, 0x7a, 0x83, 0x98, 0xa6, 0x8c, 0x7d, 0x99, 0x6c, 0x74,
  0x79, 0x75, 0xae, 0x8b, 0x96, 0xa7, 0x8e, 0x97, 0x7e, 0x7e, 0xd3, 0xa6,
  0x8a, 0xc4, 0x7a, 0x9e, 0x9d, 0x82, 0xa9, 0xa3, 0x83, 0x9c, 0x97, 0x76,
  0x7d, 0x76, 0x9d, 0xa5, 0x81, 0x7c, 0x9c, 0x99, 0x60, 0x86, 0x92, 0xaa,
  0x9f, 0x90, 0x81, 0x97, 0x76, 0x90, 0x88, 0xa2, 0x85, 0xa0, 0x7a, 0x8d,
  0x98, 0x7b, 0x7a, 0x8c, 0xaa, 0xc6, 0x8e, 0x7c, 0x95, 0x83, 0x7b, 0xa3,
  0x93, 0xab, 0x7e, 0x9c, 0x7d, 0x72, 0x93, 0x9a, 0xa7, 0xac, 0x7a, 0x86,
  0x88, 0x74, 0x6d, 0xa8, 0x90, 0x8d, 0x84, 0x63, 0x67, 0x7c, 0xa0, 0x9e,
  0x9a, 0x9b, 0xb0, 0x74, 0x6e, 0x92, 0x98, 0x74, 0x80, 0x93, 0x8a, 0xa0,
  0x94, 0x76, 0x98, 0x91, 0x8d, 0xb6, 0x89, 0x8d, 0x6c, 0x82, 0x87, 0x7f,
  0x5f, 0xaf, 0x75, 0x94, 0x79, 0xce, 0x9a, 0x80, 0x4e, 0xdf, 0x59, 0xcf,
  0x7c, 0xab, 0x96, 0x8f, 0x66, 0xb4, 0x71, 0xe4, 0x7e, 0x8d, 0xa8, 0x75,
  0x73, 0x8d, 0x59, 0xa6, 0x6c, 0x88, 0xa0, 0x9f, 0x83, 0xa5, 0x7e, 0x7b,
  0x75, 0x78, 0x8f, 0x99, 0x70, 0xa9, 0x67, 0x7c, 0x85, 0x9a, 0xa0, 0x86,
  0x94, 0xa0, 0x86, 0x90, 0x91, 0x8f, 0xb4, 0x9c, 0x9b, 0xb6, 0x86, 0x9e,
  0x6d, 0x7c, 0xc6, 0x93, 0x94, 0xad, 0x78, 0xb5, 0x76, 0xa5, 0x97, 0x91,
  0x93, 0x9a, 0x8b, 0x92, 0x69, 0xa8, 0x80, 0xaf, 0x80, 0x89, 0x93, 0xa2,
  0x7c, 0x59, 0x98, 0x9f, 0x9e, 0x9c, 0x6a, 0x88, 0xa5, 0xa0, 0x77, 0x9e,
  0x88, 0xb5, 0x7f, 0x74, 0x85, 0x86, 0x6c, 0x97, 0x95, 0xc0, 0xaa, 0x8a,
  0x85, 0x85, 0x74, 0xa3, 0xb2, 0xb6, 0x6c, 0x86, 0x80, 0x81, 0x85, 0xa5,
  0x90, 0xab, 0x97, 0x81, 0x7d, 0x98, 0x62, 0xb5, 0x8b, 0x87, 0x8f, 0x63,
  0x91, 0x70, 0x6d, 0xb3, 0x89, 0xa5, 0x97, 0x8f, 0x77, 0x85, 0x9e, 0x7e,
  0x90, 0x8b, 0x82, 0xa6, 0x86, 0x78, 0x99, 0x88, 0x81, 0xae, 0x93, 0x97,
  0x90, 0x83, 0x94, 0x6a, 0x62, 0xad, 0x61, 0x98, 0x83, 0xa7, 0x97, 0x6c,
  0x5d, 0xce, 0x82, 0xdd, 0x75, 0xae, 0x9e, 0x8d, 0x5c, 0xa8, 0x6b, 0xcc,
  0x8f, 0x7b, 0x97, 0x84, 0x70, 0x96, 0x83, 0xa5, 0x7c, 0x6e, 0xa2, 0x94,
  0x80, 0x8f, 0x66, 0x79, 0x83, 0x70, 0x9b, 0x91, 0x92, 0xb1, 0x6e, 0x88,
  0x83, 0x83, 0x91, 0x70, 0x91, 0xa7, 0x81, 0x8c, 0x98, 0x81, 0xb1, 0x9e,
  0x96, 0xa6, 0x97, 0x98, 0x69, 0xa9, 0xc4, 0x9e, 0x88, 0xa6, 0xa3, 0xb4,
  0xb1, 0x85, 0x97, 0x97, 0x7e, 0xab, 0x67, 0x81, 0x95, 0x84, 0x89, 0x96,
  0x7b, 0x7f, 0x84, 0x9c, 0x8d, 0x90, 0x82, 0xa2, 0x89, 0x7b, 0x78, 0x9c,
  0x65, 0x99, 0x8c, 0x93, 0x9e, 0xbd, 0x68, 0x7d, 0x9d, 0x93, 0x84, 0x9d,
  0x9b, 0xb1, 0x93, 0x92, 0x8f, 0x76, 0x80, 0xad, 0x94, 0xaf, 0x7c, 0x8a,
  0x83, 0x82, 0x76, 0xb1, 0xa2, 0x9d, 0x8c, 0x90, 0x91, 0xa7, 0x69, 0xbd,
  0x7b, 0x92, 0x84, 0xa6, 0x8a, 0x80, 0x85, 0x9c, 0x80, 0xa3, 0x9a, 0xae,
  0x7f, 0xad, 0x97, 0x70, 0x77, 0x79, 0x6f, 0x94, 0x81, 0x83, 0x8e, 0x97,
  0x85, 0xa7, 0x84, 0x94, 0x7e, 0x9f, 0x96, 0x77, 0x58, 0xba, 0x95, 0x83,
  0x76, 0x91, 0x95, 0x6f, 0x6d, 0xfc, 0x68, 0xc0, 0x8a, 0xb0, 0xa1, 0x9d,
  0x69, 0xba, 0x6c, 0xc9, 0xa7, 0x7e, 0xb2, 0x9d, 0x70, 0x8f, 0x7b, 0x98,
  0x6c, 0x86, 0x93, 0xa5, 0x8e, 0x97, 0x7c, 0x83, 0xa5, 0x6d, 0x95, 0x8a,
  0x92, 0x9e, 0x6f, 0x7c, 0x8b, 0x88, 0x91, 0x83, 0x7b, 0xbe, 0x81, 0x83,
  0x83, 0x98, 0x9f, 0x82, 0x94, 0xa6, 0x8f, 0x99, 0x64, 0x89, 0xb9, 0x7c,
  0x8d, 0xa4, 0x91, 0xa4, 0x6b, 0x8a, 0xbc, 0x99, 0x7a, 0x94, 0x82, 0x7f,
  0x6e, 0x98, 0x84, 0x91, 0x99, 0x7b, 0x90, 0x8f, 0x8d, 0x63, 0x89, 0xa1,
  0xa2, 0x7d, 0x76, 0x93, 0x6d, 0x7f, 0x8e, 0x98, 0x87, 0xa7, 0x73, 0x87,
  0x7d, 0x7f, 0x84, 0xab, 0xb0, 0xb4, 0x80, 0x93, 0x96, 0x88, 0x86, 0x99,
  0xab, 0xb7, 0x7d, 0xa3, 0x61, 0x67, 0x7c, 0xa3, 0xa1, 0x97, 0x8a, 0xa7,
  0x84, 0x80, 0x43, 0xa8, 0x7c, 0x8d, 0x7b, 0x8e, 0x6c, 0x84, 0x69, 0x8f,
  0xa0, 0xaa, 0x8c, 0xa4, 0x79, 0x99, 0x7b, 0x87, 0x81, 0x8b, 0x8d, 0x9a,
  0x77, 0x82, 0x99, 0x84, 0x75, 0xbb, 0x79, 0x8b, 0x6c, 0xa6, 0x95, 0x75,
  0x59, 0xb9, 0x63, 0x8e, 0x77, 0xa4, 0xae, 0x73, 0x67, 0xdf, 0x69, 0xcf,
  0x6e, 0xa5, 0xa9, 0x82, 0x82, 0xb1, 0x9d, 0xbc, 0x96, 0x67, 0xa8, 0x76,
  0x7c, 0x96, 0x75, 0x9b, 0x8a, 0x8b, 0x90, 0x99, 0x7e, 0x95, 0x6e, 0x80,
  0x8b, 0x85, 0x8b, 0x7c, 0x83, 0xa1, 0x88, 0x78, 0x75, 0x85, 0x87, 0x7e,
  0x7b, 0xb5, 0x68, 0x9c, 0x8a, 0x85, 0xa1, 0x78, 0x92, 0xa2, 0x90, 0x95,
  0x66, 0x8c, 0xb8, 0x85, 0x9b, 0xb4, 0x79, 0x90, 0x8c, 0x9a, 0xaf, 0x9b,
  0x8d, 0x92, 0x7a, 0x7c, 0x9a, 0x76, 0x8b, 0x89, 0x8d, 0x80, 0x83, 0xb9,
  0xa0, 0x7b, 0x7e, 0x89, 0xa0, 0x7c, 0x77, 0x83, 0x8b, 0x82, 0x81, 0x9f,
  0x97, 0xab, 0x91, 0x9d, 0x6d, 0x68, 0x7b, 0x9b, 0x92, 0xae, 0x7a, 0x9b,
  0x99, 0x72, 0x7c, 0xa3, 0x94, 0xac, 0x8c, 0x95, 0xa6, 0x90, 0x77, 0xa0,
  0x99, 0xa4, 0x7f, 0x9a, 0x9c, 0x8c, 0x61, 0xaa, 0x7b, 0x83, 0x8f, 0x60,
  0x8c, 0x8b, 0x66, 0x9f, 0x89, 0x9e, 0x89, 0x81, 0x70, 0x81, 0x8a, 0x77,
  0x7f, 0x9e, 0x81, 0x90, 0x9d, 0x93, 0x93, 0x87, 0x86, 0xa2, 0x8d, 0x85,
  0x85, 0xa1, 0xa9, 0x61, 0x69, 0xb0, 0x80, 0x77, 0x64, 0xb8, 0xa8, 0x7c,
  0x84, 0xd9, 0x8a, 0xd2, 0x89, 0x91, 0xa0, 0x91, 0x7c, 0xb3, 0x6b, 0xb3,
  0x91, 0x76, 0x9b, 0x8a, 0x8c, 0x78, 0x74, 0x98, 0x82, 0x6f, 0xa4, 0x98,
  0x7f, 0x8c, 0x9e, 0x6e, 0x83, 0x73, 0x95, 0x81, 0x6e, 0xa1, 0x91, 0x80,
  0x89, 0x94, 0xa8, 0x7f, 0x75, 0xa4, 0x84, 0x8a, 0x83, 0x9b, 0x9a, 0x73,
  0x76, 0xa4, 0x86, 0x87, 0xa5, 0x81, 0x9a, 0x79, 0x8a, 0xaf, 0x81, 0x86,
  0x6d, 0x89, 0xa7, 0xa0, 0x83, 0x9f, 0x6b, 0x96, 0x8e, 0x92, 0x95, 0x94,
  0x96, 0x6a, 0x82, 0xb1, 0xa3, 0x56, 0x7d, 0x8c, 0x93, 0x74, 0x77, 0x7d,
  0x6e, 0x91, 0x80, 0x92, 0x8c, 0xad, 0x9f, 0x7a, 0x60, 0x81, 0x82, 0x8a,
  0xb3, 0xab, 0x8a, 0x85, 0x98, 0xa2, 0x97, 0x9a, 0x98, 0xb7, 0x8e, 0x86,
  0x9d, 0x73, 0x6f, 0xaa, 0x93, 0xa6, 0xa5, 0x7c, 0x71, 0x89, 0x58, 0xb1,
  0x81, 0x8d, 0x7f, 0x59, 0x97, 0x6d, 0x52, 0xa0, 0x94, 0x96, 0x9a, 0x67,
  0x7d, 0x7e, 0x94, 0x6e, 0x88, 0x77, 0x73, 0x94, 0x72, 0x69, 0x9f, 0x71,
  0x4d, 0x9a, 0x76, 0x8f, 0x7c, 0xa0, 0xa7, 0x65, 0x49, 0xae, 0x66, 0x7c,
  0x84, 0xb0, 0xb5, 0x57, 0x95, 0xc9, 0x80, 0xc5, 0x82, 0xa0, 0x9d, 0x91,
  0x7d, 0xb3, 0x7f, 0xd4, 0xa7, 0x7c, 0x9f, 0x94, 0x8f, 0x88, 0x6b, 0xa7,
  0x95, 0x8e, 0xb3, 0xb2, 0x89, 0x94, 0x71, 0x6e, 0x7e, 0x91, 0xae, 0x8b,
  0x67, 0xa1, 0xa8, 0x95, 0x9e, 0xb6, 0xa1, 0x6e, 0x54, 0xac, 0x83, 0x9b,
  0x94, 0xac, 0x95, 0x88, 0x89, 0xc0, 0x73, 0x8c, 0x93, 0x7c, 0xa7, 0x96,
  0x8b, 0xa1, 0x6e, 0x8e, 0xb2, 0xa5, 0x9b, 0x9d, 0x76, 0x9d, 0x89, 0x96,
  0x73, 0x96, 0x95, 0x8c, 0x99, 0x57, 0x7a, 0x92, 0xa2, 0x82, 0x7b, 0xa4,
  0x84, 0x6e, 0x99, 0x80, 0x90, 0x7a, 0x8d, 0x9b, 0x98, 0xb5, 0x70, 0x89,
  0x93, 0xb1, 0x88, 0xa2, 0x87, 0xad, 0x9a, 0x97, 0xa7, 0x8b, 0x81, 0x94,
  0xa8, 0x9e, 0x6c, 0x8a, 0x9e, 0x93, 0x7c, 0xa2, 0x94, 0xa8, 0xa1, 0x7b,
  0x88, 0x8c, 0x6a, 0xb4, 0x8a, 0xa3, 0x86, 0x7b, 0x8b, 0x86, 0x5d, 0xa8,
  0xa2, 0xa3, 0x7b, 0x91, 0x77, 0x82, 0x9f, 0x83, 0x65, 0x75, 0x70, 0x83,
  0x66, 0x7b, 0xa0, 0x68, 0x82, 0x93, 0x90, 0x83, 0x79, 0x86, 0x9f, 0x4c,
  0x8e, 0x90, 0x5d, 0x89, 0x69, 0xa0, 0x9a, 0x7b, 0xa6, 0xaa, 0x8a, 0x99,
  0x8a, 0x80, 0xa5, 0x68, 0x7f, 0xa4, 0x7a, 0xb4, 0x8c, 0xa3, 0xaf, 0x78,
  0xaa, 0xa7, 0x7c, 0x93, 0x86, 0x90, 0x90, 0x93, 0x75, 0x9b, 0x6c, 0x6b,
  0x9e, 0xa2, 0x8d, 0x88, 0x5e, 0x97, 0x98, 0x77, 0x80, 0x99, 0xbb, 0x7b,
  0x87, 0x8f, 0x8a, 0x98, 0x92, 0x95, 0x96, 0x74, 0x88, 0xa8, 0x6f, 0x93,
  0x6d, 0xa0, 0x92, 0x95, 0x8a, 0xb3, 0x98, 0x81, 0x6b, 0x9a, 0x8e, 0x98,
  0x9f, 0xa8, 0x9b, 0x8e, 0x6c, 0x8b, 0x85, 0x97, 0x7c, 0x5d, 0x7f, 0x89,
  0x85, 0x8c, 0x75, 0x9c, 0x87, 0x8d, 0x85, 0x89, 0x7c, 0x6f, 0x97, 0xae,
  0x89, 0xd0, 0x81, 0x83, 0x98, 0x8e, 0x77, 0x93, 0x95, 0xac, 0x8c, 0x98,
  0x7c, 0x82, 0x86, 0x95, 0x88, 0x8e, 0xa9, 0x8f, 0x9e, 0x94, 0x8d, 0x86,
  0x8f, 0x9a, 0x8b, 0x96, 0x5f, 0xac, 0x65, 0x9e, 0x8a, 0x9b, 0x96, 0x7d,
  0x79, 0x6b, 0x70, 0xb6, 0x81, 0x9d, 0x8c, 0x68, 0x78, 0x88, 0xa6, 0x82,
  0x6c, 0xb4, 0x81, 0x8d, 0x8d, 0x87, 0xa1, 0x6b, 0x9c, 0x80, 0x59, 0x70,
  0x8c, 0x99, 0xa2, 0x73, 0x5c, 0x93, 0x80, 0x6e, 0x8c, 0x74, 0xb2, 0x74,
  0x6d, 0xa7, 0x5d, 0xaf, 0x80, 0xa9, 0xac, 0x5f, 0x8a, 0x95, 0x8c, 0xae,
  0xa5, 0x89, 0xa5, 0x66, 0x97, 0xa3, 0x72, 0x91, 0xab, 0x89, 0x8a, 0x9f,
  0x73, 0x8f, 0x61, 0x67, 0x77, 0xa6, 0x9d, 0xa5, 0x9c, 0xa3, 0x94, 0x89,
  0x6a, 0x82, 0xa2, 0x6b, 0x77, 0x86, 0x6d, 0xa2, 0x89, 0x85, 0xa1, 0x6b,
  0x90, 0x91, 0x6b, 0x9f, 0x97, 0xaa, 0x8e, 0x85, 0xa8, 0xd0, 0x70, 0x8f,
  0xa2, 0xa1, 0x9a, 0x92, 0x8c, 0x96, 0x99, 0xa0, 0x69, 0x85, 0x84, 0x8f,
  0x83, 0x6c, 0x97, 0x91, 0xb1, 0x6a, 0x85, 0x8b, 0x7a, 0x82, 0x75, 0x7f,
  0xa1, 0x7f, 0x7f, 0xad, 0xa9, 0xb9, 0x90, 0x90, 0xa5, 0x7f, 0x85, 0x98,
  0xa4, 0x9d, 0x81, 0xab, 0x80, 0xa5, 0x82, 0x9c, 0x93, 0x94, 0x7b, 0x95,
  0x83, 0x7f, 0x69, 0xa1, 0xac, 0x99, 0x72, 0x7f, 0x97, 0x66, 0x59, 0xa5,
  0x8d, 0xac, 0x78, 0x7e, 0x95, 0x80, 0xa3, 0xab, 0x84, 0xa3, 0x9e, 0x85,
  0x69, 0x92, 0x76, 0x75, 0x99, 0x9c, 0x70, 0xa0, 0x88, 0x94, 0x6e, 0x68,
  0xa5, 0x77, 0xa1, 0x80, 0x7a, 0x85, 0x97, 0x9b, 0x94, 0x61, 0x9f, 0x5a,
  0x85, 0xb4, 0x80, 0x7b, 0x83, 0x74, 0x8d, 0x76, 0x8c, 0x9c, 0x6a, 0x72,
  0x86, 0x67, 0x98, 0x93, 0x9d, 0x91, 0x8d, 0x6c, 0x9f, 0x7b, 0x5c, 0x62,
  0x7f, 0x8a, 0xaa, 0x92, 0x96, 0x89, 0x87, 0x6b, 0x8a, 0x78, 0x8e, 0x79,
  0x88, 0x93, 0x7b, 0x83, 0x7b, 0x74, 0x73, 0x86, 0x94, 0x6c, 0x8a, 0x89,
  0x64, 0x5d, 0x94, 0x7c, 0x91, 0x6f, 0x8d, 0x8d, 0x83, 0x84, 0x99, 0x76,
  0x7f, 0x6c, 0x69, 0x7a, 0x8a, 0x67, 0x98, 0x8e, 0x89, 0x9f, 0x76, 0x8f,
  0x6c, 0x75, 0x6f, 0x89, 0x7c, 0x8c, 0x69, 0x92, 0x77, 0x6c, 0x59, 0x8f,
  0x86, 0x80, 0x89, 0x69, 0x79, 0xa1, 0x8e, 0x7f, 0x8e, 0x85, 0x6d, 0x8b,
  0x8c, 0x65, 0x6f, 0x79, 0x93, 0x84, 0x79, 0x93, 0x95, 0x79, 0x7b, 0x71,
  0x7d, 0x85, 0x79, 0x84, 0x5d, 0x81, 0x83, 0x73, 0x89, 0xa0, 0x76, 0xa9,
  0x78, 0x84, 0x8a, 0x5d, 0xaa, 0x8d, 0x6a, 0x56, 0x8b, 0x65, 0x8f, 0xab,
  0x89, 0x9b, 0x97, 0x93, 0x79, 0x94, 0x8c, 0x80, 0x94, 0x91, 0x91, 0x97,
  0x79, 0x68, 0x81, 0x8b, 0xad, 0x67, 0x86, 0x8a, 0xb2, 0x74, 0xab, 0x90,
  0x7a, 0x96, 0x62, 0x8e, 0x83, 0x87, 0xa1, 0xa8, 0x71, 0x72, 0x91, 0x85,
  0x85, 0x95, 0x8a, 0x80, 0x88, 0x7b, 0x64, 0x97, 0x79, 0x8c, 0x86, 0x99,
  0x9f, 0x97, 0x82, 0x97, 0x69, 0x5d, 0x95, 0x8b, 0x92, 0x6f, 0x5f, 0x73,
  0x74, 0x82, 0x82, 0x82, 0x9d, 0x92, 0x7a, 0x9a, 0x66, 0x91, 0x69, 0xa2,
  0x96, 0x85, 0x6f, 0x84, 0x81, 0x76, 0x9e, 0x6b, 0x9b, 0xb0, 0x76, 0x7f,
  0x91, 0x79, 0x77, 0x96, 0x88, 0x82, 0x72, 0x82, 0x67, 0xab, 0xa5, 0x7d,
  0x8e, 0x95, 0x74, 0x8b, 0x78, 0x86, 0x8a, 0x76, 0x94, 0x80, 0x92, 0x80,
  0x7a, 0x9e, 0x6d, 0x77, 0x7c, 0x8a, 0x82, 0x61, 0xb1, 0x85, 0x73, 0x94,
  0x83, 0x61, 0x8e, 0x83, 0x9b, 0x91, 0xa1, 0x94, 0x74, 0x64, 0x8b, 0x69,
  0x8c, 0x81, 0x95, 0xa3, 0x86, 0x75, 0x75, 0x97, 0x89, 0x7a, 0x7b, 0x8b,
  0x8e, 0x77, 0x77, 0x7f, 0x98, 0x98, 0x5b, 0x94, 0x8b, 0x6f, 0x9c, 0x7c,
  0x73, 0x8f, 0x76, 0xa2, 0x94, 0x99, 0x72, 0xa3, 0x65, 0x5e, 0xa0, 0x9e,
  0xc3, 0x7a, 0x83, 0xb5, 0x99, 0x95, 0x9b, 0x73, 0xa9, 0xa2, 0x8d, 0x66,
  0x80, 0x7d, 0x7b, 0x81, 0x88, 0xa0, 0x60, 0x7e, 0x83, 0x91, 0x91, 0x75,
  0x8f, 0x82, 0x5c, 0x9f, 0x96, 0x6f, 0x85, 0x93, 0x88, 0x8d, 0x82, 0x72,
  0x78, 0x94, 0x79, 0x93, 0x99, 0x73, 0x75, 0x85, 0x96, 0x87, 0x77, 0x8c,
  0x88, 0x75, 0x77, 0x71, 0x70, 0x8c, 0x7d, 0x9c, 0x82, 0x7a, 0x7e, 0x98,
  0x5e, 0x83, 0x8c, 0x75, 0xab, 0x75, 0x92, 0x79, 0x77, 0x89, 0x77, 0x7e,
  0x98, 0x8f, 0x8d, 0x84, 0x8b, 0x93, 0x6e, 0x84, 0x80, 0x85, 0xa0, 0x69,
  0x83, 0x96, 0x6c, 0x69, 0x7c, 0x5d, 0x7d, 0x61, 0x89, 0xb2, 0x81, 0x8d,
  0x78, 0x7f, 0x77, 0x74, 0x97, 0xa2, 0x80, 0xb0, 0x62, 0x88, 0x89, 0x94,
  0xa3, 0x7b, 0x6f, 0x96, 0x58, 0x66, 0x8e, 0x8b, 0xaa, 0x8c, 0x6d, 0x93,
  0x61, 0x60, 0x6a, 0x84, 0x95, 0x83, 0x9d, 0xaa, 0x7d, 0x79, 0x81, 0xab,
  0xa7, 0x87, 0x86, 0x9c, 0x8d, 0x69, 0x99, 0x8e, 0x88, 0x91, 0xa2, 0x75,
  0x8d, 0x99, 0x84, 0xa6, 0x99, 0xa0, 0x72, 0x88, 0x73, 0xb9, 0x99, 0x77,
  0x75, 0x83, 0xa9, 0x8d, 0xbb, 0x6f, 0x5a, 0x8e, 0x79, 0x73, 0x91, 0x79,
  0xa6, 0x92, 0x7e, 0x85, 0xac, 0xae, 0xa6, 0x72, 0x72, 0x89, 0x8e, 0x80,
  0x76, 0x7e, 0xa1, 0x75, 0x8a, 0x78, 0x7a, 0x6c, 0x86, 0x9e, 0x82, 0xa1,
  0x89, 0x4e, 0x77, 0x64, 0x80, 0x5d, 0x81, 0x90, 0x92, 0x8b, 0x8d, 0x63,
  0x79, 0x90, 0x8d, 0x72, 0x8d, 0x99, 0x69, 0x8d, 0x88, 0x8d, 0x82, 0x98,
  0x8e, 0x6d, 0x8e, 0x89, 0x75, 0x83, 0x87, 0xad, 0x9c, 0x72, 0x78, 0xa1,
  0x75, 0x9b, 0x7a, 0x7d, 0x9a, 0x93, 0x8f, 0x86, 0x7f, 0x7e, 0x90, 0x70,
  0x83, 0x7c, 0x8c, 0x8f, 0x93, 0x76, 0x56, 0x72, 0x6a, 0x7a, 0x81, 0x76,
  0x8e, 0x94, 0x77, 0x7f, 0x69, 0x7d, 0x69, 0xa5, 0x68, 0x72, 0x70, 0x96,
  0x72, 0x8b, 0x7b, 0x9a, 0x6a, 0x6e, 0x79, 0x7d, 0x7c, 0x65, 0xab, 0x6c,
  0x8a, 0x90, 0x87, 0x93, 0x5f, 0x7b, 0x7b, 0x81, 0x88, 0x82, 0x9a, 0x6e,
  0x91, 0x99, 0x85, 0x76, 0x80, 0x7a, 0x8f, 0x9f, 0x6c, 0x80, 0x69, 0x78,
  0x79, 0xb2, 0x8c, 0x68, 0x82, 0x8b, 0x7d, 0x9b, 0x7d, 0x80, 0x96, 0xa6,
  0xa4, 0xc3, 0x8f, 0x9c, 0x8d, 0x80, 0xb5, 0x6d, 0xb5, 0x8b, 0xad, 0x9e,
  0x65, 0x69, 0xb7, 0x7a, 0xb6, 0x71, 0xb9, 0x68, 0x7a, 0x6a, 0x87, 0x82,
  0x9b, 0x80, 0xa3, 0x7c, 0x8f, 0x7f, 0x9e, 0xa1, 0x84, 0x58, 0x7a, 0x96,
  0x79, 0x7c, 0x71, 0x8a, 0xb1, 0x92, 0x6e, 0x84, 0x70, 0x74, 0x8a, 0x6c,
  0x90, 0x9b, 0x6a, 0x83, 0x63, 0x5f, 0x97, 0x81, 0x9c, 0x9f, 0x94, 0x74,
  0x66, 0x77, 0x8b, 0xa0, 0xa3, 0x69, 0x5b, 0x9d, 0x7f, 0x63, 0x6a, 0x7d,
  0x8d, 0x88, 0x7e, 0x65, 0x6f, 0x9e, 0x82, 0xa1, 0x8e, 0x85, 0x77, 0x95,
  0xa4, 0x9d, 0x61, 0x85, 0x76, 0x86, 0x59, 0x91, 0x9a, 0xa4, 0x83, 0x67,
  0x67, 0x96, 0x94, 0x78, 0x92, 0x7f, 0xa6, 0x7d, 0x64, 0x7d, 0xa7, 0x8f,
  0x75, 0x8f, 0x98, 0xa0, 0x6f, 0x6e, 0x7d, 0xaf, 0x6b, 0x7e, 0x8d, 0x85,
  0x78, 0x62, 0x64, 0x88, 0x5f, 0x78, 0x82, 0x7b, 0x50, 0x7c, 0x8b, 0x6f,
  0x74, 0x79, 0x94, 0x8a, 0x67, 0x80, 0x5e, 0x8d, 0x7f, 0x67, 0x9e, 0x82,
  0x6b, 0x92, 0x75, 0x67, 0xa9, 0xa1, 0x8b, 0x71, 0x7a, 0x88, 0x7f, 0x8b,
  0x9a, 0x88, 0x7e, 0x72, 0x95, 0xae, 0x7a, 0x9b, 0x94, 0x85, 0xbf, 0x61,
  0xac, 0x8b, 0xa4, 0x88, 0x82, 0x99, 0xb9, 0x8b, 0xb4, 0x8a, 0xb6, 0x5c,
  0x7e, 0x9a, 0x93, 0x72, 0x82, 0x7a, 0xae, 0x60, 0x98, 0x58, 0x94, 0x7f,
  0x8e, 0x6b, 0x83, 0x71, 0x94, 0x68, 0x8c, 0x73, 0xa3, 0x7f, 0x9a, 0x82,
  0x6a, 0x6e, 0x73, 0x70, 0x99, 0x89, 0x7e, 0x84, 0xa2, 0x6a, 0x84, 0x89,
  0xa8, 0x99, 0x96, 0x8c, 0x7a, 0x78, 0x86, 0x90, 0xab, 0x7f, 0x87, 0x7f,
  0x87, 0x59, 0x58, 0x9b, 0x97, 0x51, 0x77, 0x62, 0x60, 0x86, 0x68, 0x8c,
  0x8e, 0x89, 0x84, 0x80, 0x68, 0x67, 0x80, 0x91, 0x5f, 0x84, 0x7d, 0x71,
  0xa3, 0x77, 0x6c, 0x82, 0x5e, 0x79, 0x8a, 0x8b, 0x9b, 0x86, 0x6f, 0x85,
  0x57, 0x86, 0x7c, 0x93, 0x69, 0x8c, 0x76, 0x94, 0x80, 0x73, 0x8f, 0x7b,
  0xa0, 0x7b, 0x85, 0x82, 0x6b, 0x64, 0x7a, 0x95, 0x81, 0x89, 0x8e, 0x74,
  0x5a, 0x79, 0x7e, 0xaa, 0x6a, 0x79, 0x9b, 0x7d, 0x78, 0x70, 0xa0, 0x6f,
  0x77, 0x72, 0x9d, 0x6f, 0x6c, 0x92, 0x94, 0x91, 0x80, 0x76, 0x94, 0x9f,
  0x82, 0x7e, 0x6c, 0x92, 0x9b, 0x76, 0xa6, 0x7f, 0x78, 0xa3, 0xa0, 0xa1,
  0x79, 0x77, 0xc9, 0x7f, 0xa1, 0x6e, 0x70, 0xa4, 0x5d, 0x75, 0xbe, 0x8c,
  0xb9, 0x73, 0x96, 0x5b, 0x7d, 0x68, 0x82, 0x82, 0x85, 0x75, 0x92, 0x58,
  0x79, 0x8f, 0xac, 0x75, 0x9b, 0x88, 0xb1, 0x8a, 0x7e, 0x8b, 0x84, 0x76,
  0x8c, 0x67, 0x92, 0x9a, 0x90, 0x95, 0x67, 0x87, 0xaa, 0x93, 0x87, 0x5d,
  0x8c, 0x73, 0x65, 0x8f, 0xa4, 0x8d, 0x7b, 0x73, 0x7b, 0xab, 0x7b, 0x9f,
  0xa3, 0x99, 0x93, 0xa6, 0x8a, 0x97, 0x79, 0x96, 0xb4, 0x96, 0x62, 0x8d,
  0x93, 0x59, 0x8d, 0x9a, 0x9f, 0x88, 0x60, 0x94, 0x6d, 0x77, 0x77, 0x76,
  0x7b, 0x75, 0x96, 0x81, 0x6a, 0x92, 0x84, 0x8c, 0x60, 0x83, 0x8e, 0x64,
  0x65, 0x94, 0x87, 0x82, 0x5e, 0x6d, 0x78, 0x8f, 0x8d, 0x9c, 0x93, 0x8b,
  0x61, 0x89, 0x7f, 0xbc, 0xa5, 0xa7, 0x90, 0x79, 0x73, 0x7f, 0x5b, 0xa5,
  0x8a, 0x6e, 0x89, 0x80, 0x53, 0x88, 0x67, 0x6e, 0x60, 0x90, 0x9a, 0x90,
  0x6e, 0x85, 0xab, 0x73, 0x91, 0x85, 0xba, 0x7d, 0x76, 0x9e, 0x5a, 0x6c,
  0xa9, 0x6e, 0x6a, 0x6d, 0x81, 0xa1, 0x83, 0x9e, 0x9d, 0x73, 0x9b, 0x7e,
  0x90, 0xae, 0x9d, 0x8f, 0x88, 0x66, 0xb4, 0x9a, 0x94, 0x66, 0x9b, 0x8e,
  0x88, 0x61, 0xb6, 0x95, 0xc3, 0x5a, 0x9c, 0x67, 0x8f, 0x6a, 0xb4, 0x7b,
  0x8b, 0x75, 0xa7, 0x6a, 0x85, 0xa6, 0xc8, 0x81, 0x94, 0x89, 0x86, 0x7a,
  0x96, 0x90, 0x7e, 0x87, 0x90, 0x94, 0x82, 0x88, 0x8a, 0x93, 0x61, 0x8e,
  0xc0, 0xa3, 0x9f, 0x80, 0x89, 0x9d, 0x71, 0x86, 0xab, 0xb0, 0x9c, 0x6d,
  0x7b, 0x9e, 0x60, 0xaa, 0x9a, 0xb6, 0x85, 0x7e, 0x7d, 0x5c, 0x63, 0xa2,
  0x97, 0x8f, 0x8b, 0x9b, 0x85, 0x7d, 0x63, 0x96, 0xa9, 0x8b, 0x7a, 0x9b,
  0x7d, 0x84, 0x7c, 0x92, 0x76, 0x83, 0x83, 0x8f, 0x7f, 0x91, 0x73, 0x7d,
  0x57, 0x6a, 0x68, 0x93, 0x85, 0x91, 0x6c, 0x98, 0x6c, 0x4f, 0x74, 0x93,
  0x90, 0x88, 0x7f, 0x99, 0x6f, 0x69, 0x8a, 0xc0, 0xa4, 0x8f, 0x87, 0x85,
  0x67, 0x69, 0x81, 0x67, 0x84, 0x5c, 0x7f, 0x93, 0x58, 0x74, 0x88, 0x90,
  0x97, 0x82, 0x8d, 0x97, 0x6c, 0x7a, 0x80, 0x79, 0x9b, 0x78, 0x9d, 0x99,
  0x7a, 0x66, 0x6f, 0x8d, 0x92, 0x8e, 0xb2, 0x98, 0x79, 0xae, 0x7c, 0x77,
  0x79, 0x85, 0x79, 0x80, 0xa0, 0xa2, 0x70, 0x99, 0x7c, 0x93, 0xb1, 0x86,
  0xa8, 0x65, 0xa3, 0x8e, 0x92, 0x5f, 0xac, 0x93, 0xbf, 0x66, 0x96, 0x71,
  0x7b, 0x78, 0xd1, 0x8e, 0x9e, 0x7c, 0xaa, 0x95, 0x84, 0x55, 0xea, 0x8b,
  0x80, 0x6a, 0x6c, 0x8c, 0x78, 0x8b, 0xa1, 0x9c, 0x89, 0x83, 0x82, 0x65,
  0x7f, 0x80, 0x67, 0x94, 0xa0, 0x9f, 0x83, 0x6d, 0x72, 0x99, 0x51, 0x82,
  0xc4, 0xbd, 0x90, 0x8d, 0x57, 0x71, 0x6e, 0xa8, 0xa3, 0xaa, 0x71, 0x69,
  0x9d, 0x8a, 0x6a, 0x9b, 0xb0, 0xb7, 0x99, 0x74, 0x71, 0x5e, 0x63, 0xab,
  0x9b, 0xbb, 0x6a, 0xa6, 0xac, 0x69, 0x67, 0x91, 0x82, 0x82, 0x5b, 0x87,
  0x7c, 0x94, 0x75, 0x81, 0x50, 0x78, 0x63, 0x7e, 0xa9, 0x9e, 0x85, 0x8a,
  0x69, 0x77, 0x6d, 0x7e, 0x9c, 0x88, 0x80, 0x81, 0x86, 0x4d, 0x76, 0x93,
  0x91, 0x7c, 0x8e, 0x8f, 0x61, 0x78, 0x80, 0x7f, 0x87, 0x84, 0x92, 0x93,
  0x57, 0x7c, 0x94, 0x95, 0x66, 0xa6, 0x9e, 0x8d, 0x5d, 0x70, 0x71, 0x71,
  0x7d, 0x86, 0xa9, 0x8c, 0x5b, 0x6f, 0x77, 0x85, 0x64, 0x77, 0x89, 0x7c,
  0x74, 0x9c, 0x7e, 0xa5, 0x80, 0x7e, 0x7c, 0x67, 0x88, 0xb3, 0x84, 0x78,
  0x8f, 0x80, 0xa9, 0x85, 0xa6, 0x8e, 0xa7, 0x94, 0x6d, 0x80, 0xc6, 0x9f,
  0xcf, 0x4e, 0xa1, 0x73, 0x6e, 0x8a, 0xd0, 0x75, 0xa4, 0x59, 0xa2, 0x9a,
  0x6a, 0x4f, 0xe4, 0x92, 0x8f, 0x6d, 0xa4, 0x83, 0x86, 0x8a, 0xa4, 0x90,
  0x87, 0x72, 0x8f, 0x74, 0x63, 0x86, 0x60, 0x97, 0xa3, 0xa6, 0x6c, 0x68,
  0x8a, 0x79, 0x5c, 0x98, 0xad, 0x9f, 0x68, 0x7b, 0x6e, 0x96, 0x48, 0xb3,
  0xcb, 0xb3, 0xa0, 0x74, 0x9b, 0x82, 0x63, 0x91, 0xb3, 0xd8, 0x5d, 0x87,
  0x7d, 0x98, 0x72, 0xa0, 0x96, 0xd7, 0x53, 0xb0, 0xa7, 0x98, 0x77, 0x7f,
  0x76, 0x8e, 0x58, 0x8a, 0x9b, 0xa4, 0x81, 0x8f, 0x6a, 0x72, 0x79, 0x83,
  0x8e, 0x8f, 0x91, 0x8d, 0x7d, 0x80, 0x4f, 0xa5, 0x9b, 0xa2, 0x98, 0xa1,
  0x5d, 0x7f, 0x83, 0xaa, 0x8d, 0x88, 0x7b, 0xb0, 0x52, 0x6d, 0x8b, 0x82,
  0x8a, 0x88, 0x74, 0x88, 0x6e, 0x8f, 0x73, 0x7b, 0x83, 0x74, 0xbc, 0x9a,
  0x53, 0x83, 0x7d, 0x50, 0x72, 0x70, 0xad, 0x90, 0x7d, 0xa1, 0xa3, 0x78,
  0xa9, 0x67, 0xaf, 0xa5, 0x5d, 0x9d, 0x96, 0x71, 0x81, 0x8a, 0xaa, 0x9f,
  0x99, 0xa5, 0x7f, 0x7e, 0x78, 0x7f, 0x8b, 0x88, 0xa9, 0x7f, 0x7f, 0x94,
  0x98, 0x5d, 0xa7, 0xa5, 0xb6, 0x63, 0xa4, 0x92, 0x90, 0x65, 0xe4, 0x82,
  0x98, 0x7c, 0xa1, 0xa8, 0x69, 0x71, 0xe9, 0x9a, 0x98, 0x6a, 0xa8, 0x8d,
  0x88, 0x80, 0xa4, 0x93, 0x85, 0x77, 0x80, 0x43, 0x75, 0x92, 0x60, 0x9f,
  0x9d, 0x8e, 0x79, 0x7a, 0x8a, 0x77, 0x6c, 0xaf, 0xbd, 0xa5, 0x9f, 0x7a,
  0x5d, 0x62, 0x81, 0xb8, 0xc0, 0xaa, 0x79, 0x4d, 0x87, 0x9b, 0x52, 0xa3,
  0xa8, 0xbb, 0x85, 0x80, 0x7c, 0x8a, 0x6d, 0xa6, 0xab, 0xbf, 0x7d, 0x74,
  0x7a, 0x87, 0x6a, 0x8f, 0x8e, 0x6c, 0x64, 0xa1, 0x88, 0x6d, 0x9a, 0x96,
  0x6e, 0x71, 0x79, 0xa0, 0xb2, 0x66, 0x75, 0x92, 0x79, 0x73, 0x72, 0x8c,
  0x88, 0x86, 0x7c, 0x9d, 0x6d, 0x72, 0x78, 0x9f, 0x6a, 0x7d, 0x88, 0x99,
  0x6c, 0x4b, 0x75, 0x99, 0x58, 0x9d, 0x82, 0x9a, 0x53, 0x82, 0x97, 0x53,
  0x84, 0x70, 0xb0, 0x89, 0x70, 0xa4, 0x6e, 0x7e, 0x9c, 0x79, 0xae, 0x8f,
  0x6d, 0x93, 0x56, 0x64, 0x7f, 0x80, 0x93, 0xae, 0x5b, 0xa0, 0x5d, 0x92,
  0x5f, 0x78, 0x77, 0x92, 0xb2, 0xa6, 0xa3, 0x7e, 0x71, 0x75, 0x91, 0x79,
  0xbc, 0x7e, 0x9a, 0x8a, 0x9d, 0x9e, 0xb3, 0x9e, 0xb0, 0x81, 0xa2, 0x9a,
  0x70, 0x58, 0xf4, 0x76, 0x8c, 0x57, 0xa1, 0x98, 0x85, 0x84, 0xf9, 0x97,
  0x82, 0x81, 0x9c, 0x9d, 0x6a, 0x76, 0x9c, 0x8e, 0x79, 0x7c, 0x95, 0x32,
  0x5f, 0x87, 0x6e, 0xaf, 0xab, 0xb5, 0x6e, 0x63, 0xa7, 0x8a, 0x7b, 0xa2,
  0xac, 0xa5, 0x7b, 0x48, 0x7e, 0x60, 0x87, 0x92, 0xc2, 0xbb, 0x7d, 0x77,
  0x90, 0x8f, 0x6c, 0xb2, 0xa5, 0xe9, 0x6b, 0x9c, 0x91, 0x5e, 0x6b, 0xa1,
  0xa4, 0xd4, 0x7e, 0x87, 0x9c, 0x93, 0x6e, 0x91, 0x8d, 0x7c, 0x58, 0x99,
  0x79, 0xa1, 0x81, 0xa7, 0x78, 0x7b, 0x7f, 0x93, 0x66, 0x79, 0x76, 0x8e,
  0x79, 0x6a, 0x83, 0x74, 0x9c, 0x8c, 0x8b, 0x8a, 0x73, 0x67, 0x88, 0x83,
  0x88, 0x8d, 0x82, 0xa8, 0x65, 0x68, 0x62, 0x8b, 0x85, 0x71, 0x90, 0xa5,
  0x5c, 0x80, 0x83, 0x6e, 0x7c, 0x84, 0xb7, 0x95, 0x74, 0x93, 0x80, 0x6d,
  0x76, 0x6e, 0x9b, 0xa7, 0x7f, 0x8e, 0x7e, 0x6a, 0x95, 0x71, 0x9c, 0xb4,
  0x7d, 0x8e, 0x66, 0xa2, 0x71, 0x73, 0x8d, 0x94, 0x93, 0x90, 0x6c, 0x6c,
  0x88, 0x78, 0x9c, 0x94, 0xac, 0x81, 0x85, 0x87, 0x86, 0x7c, 0xb2, 0x8f,
  0xbf, 0x6b, 0xa4, 0x8d, 0x9c, 0x77, 0xf1, 0x7c, 0x87, 0x57, 0xb0, 0xae,
  0x9b, 0x90, 0xf4, 0x88, 0x7e, 0x83, 0xa7, 0x71, 0xab, 0x81, 0xad, 0x84,
  0x95, 0x7e, 0x8a, 0x56, 0x77, 0x61, 0x65, 0x9d, 0xa9, 0x9a, 0x7e, 0x6e,
  0x9c, 0x76, 0x78, 0x9d, 0xa9, 0x9e, 0x7a, 0x5a, 0x7c, 0x7c, 0x5d, 0xab,
  0xb6, 0xba, 0x6a, 0x62, 0x9d, 0x7e, 0x67, 0xb7, 0xad, 0xc4, 0x6b, 0x7a,
  0xa5, 0x83, 0x64, 0x9d, 0xb8, 0xcf, 0x67, 0x99, 0x73, 0x83, 0x69, 0x99,
  0xa4, 0x98, 0x80, 0x82, 0xa9, 0x81, 0x83, 0x93, 0x6b, 0x4f, 0xa9, 0x83,
  0x72, 0x88, 0x66, 0x92, 0x78, 0x65, 0x90, 0x8d, 0x85, 0x9b, 0x97, 0x95,
  0x64, 0x4a, 0x66, 0x68, 0x6e, 0x85, 0x98, 0x9d, 0x60, 0x54, 0x55, 0x61,
  0x87, 0x7c, 0x96, 0x8d, 0x4a, 0x88, 0xa2, 0x97, 0xa2, 0x5c, 0xb1, 0xa7,
  0x4c, 0x6a, 0x6b, 0x6b, 0x8f, 0x54, 0x9b, 0x99, 0x72, 0xa7, 0x88, 0x38,
  0x84, 0xa9, 0xa5, 0xa2, 0x82, 0x8f, 0x6e, 0x89, 0x7b, 0x67, 0x9a, 0x8f,
  0xa6, 0xae, 0x8f, 0x6a, 0x9b, 0x75, 0x9b, 0x93, 0xb2, 0x61, 0x7b, 0x93,
  0xad, 0x72, 0xb4, 0x9d, 0xa3, 0x55, 0x8e, 0x91, 0x65, 0x74, 0xd7, 0x78,
  0x8a, 0x63, 0xb1, 0x8b, 0x93, 0x74, 0xf5, 0x9f, 0x81, 0x78, 0x8e, 0x92,
  0x98, 0x57, 0x9f, 0x96, 0x8f, 0x7f, 0x71, 0x5f, 0x8b, 0x73, 0x51, 0xaa,
  0xa5, 0x9a, 0x62, 0x3a, 0x68, 0x98, 0x7c, 0xaf, 0xb0, 0x9a, 0x87, 0x72,
  0x6c, 0x65, 0x7e, 0xbe, 0xb6, 0xb4, 0x6f, 0x61, 0x7d, 0x93, 0x65, 0x9e,
  0xbe, 0xd6, 0x7a, 0x90, 0x8c, 0x9b, 0x69, 0x92, 0xc6, 0xc2, 0x82, 0x78,
  0x77, 0x7f, 0x6d, 0x89, 0x89, 0x78, 0x6a, 0x7c, 0x66, 0x75, 0x84, 0x8b,
  0x7e, 0x81, 0x5d, 0x8d, 0xac, 0x9a, 0x5e, 0x8f, 0x6f, 0x7d, 0x8f, 0x6e,
  0x80, 0x96, 0x7b, 0x89, 0x7c, 0x5b, 0x87, 0x7a, 0x81, 0xa2, 0x87, 0xa1,
  0x6b, 0x52, 0x84, 0x8b, 0x78, 0x87, 0x96, 0x9b, 0x62, 0x91, 0x5a, 0x73,
  0x7e, 0x6a, 0xba, 0x98, 0x60, 0x73, 0x82, 0x58, 0x70, 0x88, 0xaf, 0x98,
  0x78, 0x91, 0x8b, 0x65, 0x9c, 0x9d, 0xb0, 0xbf, 0x72, 0xa1, 0x72, 0x7e,
  0x80, 0x74, 0x9a, 0x89, 0x9e, 0xa0, 0x6f, 0x8e, 0x83, 0x7f, 0x84, 0x86,
  0x9c, 0xab, 0x89, 0x86, 0x6c, 0x8b, 0xae, 0x9a, 0x98, 0x49, 0x89, 0xad,
  0x7d, 0x7e, 0xeb, 0x6d, 0x8e, 0x52, 0x9a, 0xae, 0x74, 0x82, 0xf7, 0x7b,
  0x84, 0x78, 0xb4, 0x8d, 0xa0, 0x98, 0xa0, 0x97, 0x96, 0x93, 0x83, 0x73,
  0x86, 0x74, 0x5a, 0xb5, 0x9d, 0xa2, 0x83, 0x6c, 0x7c, 0xa3, 0x64, 0xca,
  0xbd, 0x87, 0x65, 0x67, 0x96, 0x8d, 0x65, 0xd0, 0xb7, 0xab, 0xaa, 0x81,
  0x9c, 0x62, 0x57, 0xc8, 0xc9, 0xbe, 0x80, 0x79, 0xa4, 0x77, 0x6c, 0xb0,
  0xc0, 0xdf, 0x5f, 0x83, 0x6e, 0x5b, 0x78, 0x9a, 0x9a, 0x72, 0x68, 0x60,
  0x7b, 0x7f, 0x97, 0x8c, 0x82, 0x74, 0x9c, 0x92, 0x92, 0xa4, 0x68, 0x9e,
  0x7e, 0x5d, 0x72, 0x71, 0x8d, 0x82, 0x75, 0xa3, 0x76, 0x52, 0x9b, 0x66,
  0x8d, 0x8b, 0x87, 0x9a, 0x6f, 0x7b, 0x7a, 0x7c, 0x84, 0x7d, 0xa1, 0xaa,
  0x51, 0x75, 0x87, 0x6b, 0x9c, 0x84, 0x95, 0x9a, 0x57, 0x71, 0x8d, 0x47,
  0x8a, 0x6f, 0x9e, 0x9a, 0x7b, 0x83, 0x79, 0x4c, 0x95, 0x8a, 0xac, 0xc0,
  0x7b, 0x92, 0x7b, 0x5c, 0x78, 0xa2, 0x84, 0xa4, 0x76, 0x8e, 0x4f, 0x6b,
  0x77, 0x9a, 0x9f, 0x94, 0x96, 0x88, 0x9f, 0x95, 0x9d, 0x96, 0xb0, 0xa6,
  0xa2, 0x78, 0xba, 0x94, 0x71, 0x8e, 0xe8, 0x82, 0x90, 0x76, 0xb0, 0xa9,
  0x7a, 0x88, 0xf7, 0x92, 0x84, 0x8b, 0x90, 0xbd, 0x83, 0x80, 0xaf, 0x8f,
  0x9a, 0x8e, 0x83, 0x62, 0x79, 0x64, 0x56, 0xa8, 0xad, 0xb3, 0x91, 0x63,
  0x6f, 0x6a, 0x84, 0xcb, 0xba, 0x92, 0x59, 0x77, 0x74, 0x69, 0x6e, 0xb4,
  0xc6, 0xb0, 0x89, 0x6d, 0x92, 0x9e, 0x60, 0xa6, 0xcb, 0xc5, 0x62, 0x86,
  0x84, 0x69, 0x69, 0xaa, 0xbf, 0xc0, 0x7d, 0x88, 0x71, 0x84, 0x8a, 0x7a,
  0x9c, 0x6e, 0x6e, 0x8e, 0x94, 0xa5, 0xa4, 0x8a, 0x6b, 0x6e, 0x81, 0x86,
  0x78, 0x9c, 0x7b, 0x98, 0x7e, 0x7f, 0x78, 0x5a, 0x85, 0x82, 0x88, 0x94,
  0x68, 0x60, 0x94, 0x76, 0x81, 0x8b, 0x84, 0x83, 0x42, 0x8b, 0x8a, 0x96,
  0x62, 0xb5, 0x9d, 0xb1, 0x5b, 0x8d, 0x8d, 0x96, 0x78, 0x7e, 0x99, 0x88,
  0x69, 0x66, 0x8b, 0x7d, 0xa6, 0x76, 0xa2, 0x98, 0x65, 0x77, 0x81, 0x5e,
  0x92, 0x66, 0x98, 0xad, 0x84, 0x87, 0x87, 0x6a, 0x83, 0x9a, 0x79, 0x86,
  0x83, 0xa7, 0x70, 0x7d, 0x8d, 0x80, 0xa2, 0x90, 0x9a, 0x72, 0x67, 0x80,
  0x94, 0x8f, 0xb2, 0xa1, 0xae, 0x78, 0x8f, 0x94, 0x9e, 0x95, 0xd4, 0x66,
  0x88, 0x64, 0xa9, 0xab, 0x88, 0x75, 0xd7, 0x9d, 0x6c, 0x8a, 0xac, 0xa5,
  0x89, 0x6f, 0xa2, 0x94, 0x77, 0x78, 0x83, 0x84, 0x70, 0x6d, 0x5a, 0x9c,
  0xb0, 0xab, 0x88, 0x72, 0x87, 0x83, 0x61, 0xb6, 0xb7, 0xa4, 0xa1, 0x90,
  0x67, 0x6d, 0x68, 0xb7, 0xbe, 0xb2, 0x6b, 0x74, 0x5d, 0x70, 0x6f, 0xb3,
  0xb7, 0xc3, 0x90, 0x75, 0x88, 0x7f, 0x8a, 0x99, 0xbd, 0xb9, 0x83, 0x8b,
  0x85, 0x91, 0x95, 0x94, 0x83, 0x7f, 0x7b, 0x6d, 0xa0, 0x76, 0xaa, 0x8b,
  0x7c, 0x6d, 0x68, 0x67, 0x9a, 0x8c, 0x85, 0x94, 0x66, 0x65, 0x95, 0x7a,
  0x9a, 0xa6, 0x97, 0x9a, 0x7b, 0x60, 0x88, 0x7c, 0x72, 0x8c, 0x8f, 0x8f,
  0x56, 0x66, 0x8d, 0x9a, 0x75, 0xa8, 0x8a, 0x7b, 0x65, 0x7a, 0x78, 0x7c,
  0x61, 0x82, 0xa1, 0x99, 0x57, 0x67, 0x99, 0x4f, 0x95, 0x76, 0xa7, 0x96,
  0x6e, 0x75, 0x75, 0x4f, 0x78, 0x81, 0x94, 0xae, 0x76, 0x82, 0x53, 0x8a,
  0x88, 0x76, 0x84, 0x8a, 0x90, 0x97, 0x6e, 0xa3, 0x89, 0x74, 0x9d, 0x80,
  0x9e, 0x62, 0x6e, 0x93, 0x90, 0x86, 0xb7, 0x93, 0xb0, 0x72, 0xb5, 0xa0,
  0x7c, 0x68, 0xca, 0x82, 0x91, 0x6b, 0xa2, 0xbc, 0x75, 0xae, 0xdc, 0xa3,
  0x6d, 0x77, 0x96, 0xb6, 0x9e, 0xad, 0xa5, 0xa5, 0x84, 0x8c, 0x74, 0x8a,
  0x96, 0xa3, 0x79, 0x9c, 0x98, 0x9c, 0x6c, 0x8d, 0x95, 0x7f, 0x71, 0xce,
  0xb3, 0xa9, 0x85, 0x81, 0xb4, 0x6e, 0x64, 0xbf, 0xa4, 0xb1, 0x71, 0x70,
  0x72, 0x82, 0x68, 0xb3, 0xb5, 0xcb, 0x98, 0x8b, 0x8c, 0x78, 0x85, 0xa1,
  0xbd, 0xd8, 0x91, 0x86, 0x86, 0xaa, 0x8d, 0x7b, 0x97, 0x83, 0x6f, 0x83,
  0x6f, 0x83, 0x96, 0x80, 0x6f, 0x6c, 0x6a, 0xa0, 0xb2, 0x83, 0x69, 0x89,
  0x77, 0x74, 0x98, 0x80, 0x93, 0x92, 0x9f, 0x99, 0x6f, 0x63, 0x5d, 0x85,
  0x70, 0xa7, 0x74, 0x8b, 0x6d, 0x6c, 0xa2, 0x6e, 0x5e, 0xbd, 0x78, 0x7f,
  0x68, 0x90, 0x82, 0x70, 0x69, 0x6a, 0x95, 0xa0, 0x63, 0x6c, 0x7d, 0x56,
  0x6e, 0x8a, 0xa2, 0xa1, 0x5e, 0x61, 0x93, 0x67, 0x8b, 0x7b, 0x8f, 0xbe,
  0x74, 0x84, 0x5f, 0x73, 0xa3, 0x76, 0x8f, 0xa0, 0x89, 0x96, 0x8e, 0xa8,
  0x6a, 0x80, 0xab, 0x94, 0xb5, 0x8e, 0x8f, 0xa3, 0x73, 0x82, 0xc0, 0x8e,
  0xb1, 0x47, 0xc4, 0x9a, 0x83, 0x9e, 0xca, 0x6e, 0x9a, 0x5b, 0x72, 0xb3,
  0x7a, 0x90, 0xd9, 0x8f, 0x78, 0x56, 0x95, 0xbe, 0x6f, 0xa0, 0xab, 0x9b,
  0x7c, 0x6e, 0x7c, 0x83, 0x87, 0x6d, 0x5d, 0xab, 0xaf, 0xaf, 0x7e, 0xa0,
  0x72, 0x85, 0x75, 0xc7, 0x9b, 0x9f, 0x7b, 0x60, 0x71, 0x87, 0x72, 0xb8,
  0xb8, 0xbb, 0x65, 0x91, 0x9e, 0x84, 0x63, 0xa9, 0xa8, 0xc9, 0x7d, 0x97,
  0x75, 0x89, 0x83, 0xa7, 0xb7, 0xbc, 0x7d, 0x74, 0x5f, 0x83, 0x90, 0x85,
  0x70, 0x81, 0x9d, 0x86, 0x79, 0x63, 0x87, 0x7e, 0x5e, 0x7c, 0x8d, 0x76,
  0xa9, 0x95, 0x87, 0x77, 0x63, 0x78, 0x88, 0x7e, 0x7d, 0x75, 0x7b, 0x99,
  0x71, 0x60, 0x68, 0x94, 0x85, 0x95, 0x94, 0x6c, 0x72, 0x8d, 0x83, 0x88,
  0x9e, 0x9a, 0x8f, 0x87, 0x74, 0x7c, 0x66, 0x8b, 0x79, 0x7e, 0x9c, 0x9e,
  0x58, 0x57, 0x86, 0x45, 0x60, 0x7b, 0x98, 0xb1, 0x67, 0x8b, 0x71, 0x62,
  0x70, 0xae, 0xac, 0xad, 0x65, 0x7e, 0x96, 0x5d, 0x73, 0x8a, 0x7b, 0x86,
  0x7e, 0xa3, 0x92, 0x83, 0x89, 0xa6, 0xa1, 0x88, 0x9b, 0x7d, 0x84, 0x90,
  0x96, 0x94, 0xb1, 0x86, 0xa2, 0x53, 0xa4, 0x8b, 0x81, 0xb0, 0xd4, 0x74,
  0x8b, 0x65, 0xa6, 0xb7, 0x7a, 0xc6, 0xc2, 0xa5, 0x79, 0x7a, 0xa8, 0xcd,
  0x79, 0x84, 0x9e, 0xa5, 0x92, 0x8c, 0x78, 0x98, 0x98, 0x71, 0x7d, 0xcf,
  0xa2, 0xa0, 0x95, 0x7b, 0x75, 0x8e, 0x76, 0xc6, 0xb1, 0x9f, 0x91, 0x72,
  0x82, 0x73, 0x61, 0xbe, 0xc0, 0xa0, 0x8b, 0x5f, 0x88, 0x79, 0x5e, 0xbc,
  0x9d, 0xe0, 0x81, 0x70, 0x92, 0x64, 0x75, 0x91, 0x9e, 0xbc, 0x8f, 0x89,
  0x94, 0x98, 0x95, 0x71, 0x96, 0x7d, 0x7c, 0x70, 0x70, 0x7d, 0xa7, 0x77,
  0x5b, 0x7e, 0x6f, 0x92, 0x7d, 0x76, 0x85, 0x6b, 0x88, 0x6f, 0x8c, 0x69,
  0x7e, 0xab, 0x9e, 0x92, 0x6d, 0x5c, 0x79, 0x6c, 0x93, 0x7e, 0x82, 0x7d,
  0x62, 0x5f, 0x95, 0x95, 0x98, 0x81, 0x92, 0x8f, 0x86, 0x7e, 0x77, 0x85,
  0x96, 0x78, 0x9f, 0x94, 0x70, 0x86, 0x72, 0x45, 0xa3, 0x76, 0xb1, 0x9f,
  0x67, 0x5d, 0x80, 0x49, 0x89, 0x80, 0xa0, 0x9d, 0x6c, 0x77, 0x5f, 0x61,
  0x97, 0x75, 0x6e, 0x7b, 0x86, 0xa2, 0x92, 0x85, 0x80, 0x99, 0x8a, 0xa7,
  0x9d, 0xa3, 0x98, 0x8e, 0x71, 0x84, 0xc9, 0x8a, 0xa3, 0x80, 0xb0, 0x8f,
  0x8a, 0x9a, 0xd3, 0x70, 0x95, 0x6c, 0x8e, 0xcd, 0x8b, 0xbd, 0xe0, 0x86,
  0x81, 0x6e, 0xa6, 0xcb, 0x7e, 0x8e, 0x9e, 0x9a, 0xb4, 0x74, 0x80, 0xa4,
  0xb0, 0x95, 0x6a, 0xaf, 0xb3, 0xb0, 0x89, 0x81, 0x97, 0x8a, 0x64, 0xc9,
  0xab, 0xa4, 0x96, 0x6f, 0x6b, 0x55, 0x60, 0xa9, 0xa5, 0xaf, 0x9b, 0x89,
  0x69, 0x95, 0x5b, 0xbf, 0xa9, 0xda, 0x77, 0x71, 0x9c, 0x82, 0x94, 0x81,
  0x9f, 0xc4, 0x80, 0x65, 0xa5, 0x68, 0x83, 0x7a, 0x7e, 0x87, 0x84, 0x60,
  0x83, 0x8e, 0x8e, 0x77, 0x6c, 0x88, 0x66, 0x9f, 0xa4, 0x84, 0x8a, 0x66,
  0x6e, 0x89, 0x5e, 0x85, 0x88, 0xa2, 0x80, 0x6e, 0x87, 0x69, 0x90, 0x7a,
  0x7e, 0x94, 0x85, 0x78, 0x79, 0x68, 0x87, 0x8e, 0x95, 0x73, 0x9a, 0x90,
  0x70, 0x7b, 0x6e, 0x7b, 0x86, 0x99, 0xa1, 0x9a, 0x63, 0x70, 0x8f, 0x61,
  0xb0, 0x81, 0xaa, 0x98, 0x63, 0x72, 0x8b, 0x60, 0x6f, 0x67, 0xac, 0xa0,
  0x69, 0x6d, 0x95, 0x53, 0x98, 0xa6, 0xa4, 0x85, 0x8f, 0x94, 0x65, 0x84,
  0x6f, 0x7d, 0x9c, 0x8b, 0x8f, 0xad, 0x8c, 0x8d, 0x7a, 0xb0, 0xc1, 0x8a,
  0xc7, 0x53, 0xa3, 0x77, 0x88, 0xa0, 0xe9, 0x57, 0xb0, 0x4a, 0x72, 0xc0,
  0x7c, 0x88, 0xca, 0x83, 0xad, 0x5e, 0x8c, 0xd5, 0xb1, 0x87, 0x8e, 0x9a,
  0xbb, 0x50, 0xa5, 0x98, 0xa1, 0x91, 0x4d, 0xab, 0xb6, 0x8c, 0x9d, 0x9b,
  0x86, 0x5b, 0x52, 0xb2, 0xc0, 0x9b, 0x9d, 0x79, 0x92, 0x68, 0x43, 0xab,
  0xc0, 0xb6, 0x83, 0x6e, 0x8f, 0x4b, 0x54, 0xaa, 0x88, 0xc7, 0x87, 0x7c,
  0x89, 0x68, 0x72, 0x89, 0x77, 0xc1, 0x65, 0x4c, 0x6c, 0x98, 0x79, 0x6c,
  0x8d, 0xa9, 0x92, 0x5a, 0x80, 0x90, 0xa1, 0x7a, 0x6d, 0x83, 0x83, 0x86,
  0x81, 0x73, 0x9b, 0x72, 0x75, 0x69, 0x83, 0x92, 0x94, 0x91, 0x8a, 0x71,
  0x75, 0x78, 0x88, 0x7e, 0x7f, 0x9a, 0x8c, 0x76, 0x68, 0x69, 0x90, 0x76,
  0xa7, 0x85, 0x97, 0x86, 0x83, 0x85, 0x7b, 0x8e, 0x71, 0x7c, 0xb8, 0x84,
  0x7b, 0x7b, 0x7f, 0x46, 0x8b, 0x92, 0xae, 0x9a, 0x50, 0x5a, 0x9a, 0x49,
  0x93, 0x8f, 0x7e, 0x96, 0x74, 0x81, 0x69, 0x80, 0x96, 0x70, 0x76, 0x7c,
  0xa4, 0x95, 0x8a, 0x63, 0x70, 0x93, 0x94, 0x77, 0xb7, 0xad, 0x68, 0x92,
  0x8d, 0x97, 0xb6, 0x7d, 0x8a, 0x44, 0x76, 0x74, 0x6f, 0x96, 0xd4, 0x71,
  0x93, 0x53, 0xa2, 0xbf, 0x7c, 0xaa, 0xd3, 0x7e, 0xc4, 0x72, 0x7a, 0xd5,
  0x61, 0x8d, 0x88, 0x99, 0xa2, 0x6c, 0xb4, 0xb0, 0xa2, 0x95, 0x56, 0xc9,
  0xb9, 0x9f, 0xbd, 0x90, 0x7d, 0x87, 0x6a, 0xcf, 0xb0, 0xab, 0x8e, 0x73,
  0x62, 0x78, 0x50, 0xc3, 0xbd, 0xb5, 0xb6, 0x86, 0x7e, 0x5f, 0x5a, 0xa1,
  0x7c, 0xd6, 0xb7, 0x87, 0xa8, 0x76, 0x86, 0x97, 0x89, 0xdf, 0x64, 0x6f,
  0x90, 0x6f, 0xb8, 0x84, 0x89, 0x9b, 0x87, 0x94, 0x74, 0x95, 0x9c, 0x74,
  0x66, 0x75, 0x57, 0x8e, 0x75, 0xa7, 0x9d, 0x65, 0x68, 0x61, 0x96, 0x95,
  0x85, 0x92, 0x9c, 0x88, 0x7c, 0x80, 0x95, 0x92, 0xa8, 0x98, 0x86, 0x7b,
  0x8d, 0x4a, 0x7d, 0x92, 0x89, 0x8e, 0x93, 0x8c, 0x6d, 0x8d, 0x7e, 0x89,
  0x82, 0x81, 0x94, 0x7c, 0x6a, 0x8a, 0x83, 0x4b, 0x72, 0x7b, 0xb4, 0x91,
  0x62, 0x5c, 0x85, 0x45, 0x75, 0x82, 0x7a, 0xb5, 0x84, 0x82, 0x64, 0xa7,
  0x79, 0x87, 0x92, 0x84, 0x70, 0x9f, 0x9a, 0x80, 0x81, 0x76, 0x97, 0xa5,
  0xa5, 0x74, 0xaf, 0x7b, 0x64, 0x8f, 0xa4, 0x7c, 0x90, 0x69, 0x8f, 0x84,
  0x80, 0xa6, 0xbb, 0x66, 0x7b, 0x75, 0x6f, 0xb8, 0x9f, 0x89, 0xa9, 0x93,
  0x8b, 0x78, 0xb1, 0xbb, 0x5c, 0x8f, 0x84, 0xbb, 0x84, 0x9d, 0x8f, 0xa4,
  0x7a, 0xa1, 0x78, 0xb7, 0x8a, 0xb3, 0x8e, 0x7e, 0x81, 0x7e, 0x57, 0xba,
  0x8e, 0xa7, 0x95, 0x75, 0x7e, 0x65, 0x6c, 0xb8, 0x76, 0xa7, 0x6f, 0x80,
  0xa0, 0x77, 0x8c, 0xa5, 0x66, 0xc0, 0x97, 0x95, 0x97, 0x8c, 0x9b, 0x9d,
  0x8f, 0xcb, 0x8c, 0x81, 0x7c, 0xa3, 0xa9, 0x89, 0xa2, 0xb0, 0x6b, 0x86,
  0x7e, 0xa6, 0xa3, 0x52, 0x86, 0x86, 0x99, 0x7a, 0xa1, 0x82, 0xa1, 0x62,
  0x99, 0x92, 0x71, 0x71, 0x7a, 0x95, 0xa4, 0x88, 0x80, 0x85, 0x8e, 0x7d,
  0x5e, 0x65, 0x98, 0x7c, 0x9e, 0x73, 0x7e, 0x7e, 0x72, 0x79, 0x96, 0x7d,
  0x8a, 0x70, 0x8d, 0x89, 0x8b, 0x78, 0xa6, 0x89, 0x82, 0x86, 0x84, 0x65,
  0x9b, 0x9d, 0xb9, 0x80, 0x61, 0x78, 0x77, 0x5c, 0x76, 0xa9, 0x71, 0x93,
  0x88, 0x8f, 0x90, 0x9e, 0x98, 0xa2, 0x9a, 0x80, 0x95, 0x9a, 0x9c, 0x86,
  0x6e, 0x9a, 0x9c, 0x84, 0x5d, 0x77, 0x8b, 0xa1, 0x91, 0xad, 0xa1, 0x6e,
  0x59, 0x51, 0x97, 0xa0, 0x7d, 0x93, 0xb2, 0x7b, 0x6b, 0x85, 0xa0, 0xa7,
  0x68, 0xa1, 0xc1, 0xad, 0x65, 0xa4, 0xa8, 0xaf, 0x78, 0x80, 0xa1, 0xb9,
  0x87, 0xb9, 0x91, 0x83, 0x74, 0x7e, 0x83, 0xa6, 0x98, 0xb0, 0x64, 0x82,
  0xae, 0x8a, 0x6d, 0xb8, 0x96, 0xa7, 0x65, 0x7f, 0x76, 0x70, 0x6a, 0xbf,
  0x8a, 0xc4, 0x91, 0x6f, 0x91, 0x83, 0x75, 0xa3, 0xa7, 0xbc, 0x86, 0x85,
  0x94, 0x7d, 0x8d, 0x75, 0x71, 0xc0, 0x9a, 0x99, 0x9b, 0x89, 0xa8, 0x83,
  0xa7, 0xba, 0x85, 0x72, 0x74, 0x66, 0x9b, 0x5f, 0x69, 0x89, 0xb6, 0x5b,
  0x8f, 0x80, 0xa2, 0x68, 0x92, 0x5e, 0x98, 0x8e, 0x90, 0xac, 0xac, 0x5b,
  0x71, 0x78, 0x82, 0x87, 0xa2, 0x80, 0x93, 0x63, 0x6c, 0x64, 0x82, 0x95,
  0x74, 0x76, 0xa3, 0x81, 0x6d, 0x82, 0x89, 0x83, 0x93, 0x6f, 0x93, 0x8c,
  0x8d, 0x87, 0xa3, 0x84, 0x88, 0x6c, 0x93, 0x91, 0x96, 0x69, 0x7b, 0x6e,
  0x75, 0x6c, 0x8f, 0x94, 0x84, 0xa8, 0x9c, 0x66, 0x84, 0x8d, 0x6e, 0xa0,
  0x70, 0x9e, 0x8c, 0x96, 0x7f, 0x93, 0xa5, 0x77, 0x97, 0x76, 0x94, 0xaa,
  0x7a, 0x84, 0x7f, 0x6d, 0xb6, 0x91, 0xad, 0xa7, 0x66, 0x7a, 0x93, 0x8b,
  0xa1, 0x9a, 0x7e, 0x62, 0x81, 0x8b, 0x95, 0x99, 0xa7, 0x68, 0x84, 0x8e,
  0x8f, 0x68, 0x5f, 0x61, 0x9c, 0x86, 0x92, 0x8d, 0x8d, 0x96, 0x84, 0x8a,
  0x9b, 0xae, 0x92, 0x8c, 0x80, 0x65, 0x84, 0x71, 0xa1, 0x6f, 0x98, 0x95,
  0x99, 0x75, 0x9e, 0x8a, 0x96, 0x8d, 0x98, 0x96, 0x96, 0xa7, 0x7e, 0x6c,
  0x92, 0x7f, 0x93, 0x6a, 0x85, 0x7a, 0xa3, 0x90, 0x97, 0x9e, 0x9b, 0x83,
  0x8a, 0x92, 0x79, 0x8b, 0x95, 0x8b, 0x9d, 0x94, 0x78, 0x7d, 0xa7, 0x72,
  0xa3, 0x90, 0x7f, 0x98, 0x79, 0x82, 0x7a, 0x9f, 0x88, 0xa6, 0x98, 0xb1,
  0x90, 0x72, 0x76, 0x84, 0xa4, 0x92, 0x8a, 0x65, 0x5c, 0x82, 0x80, 0x83,
  0xa4, 0xaa, 0x8c, 0x69, 0x87, 0x9e, 0x77, 0x90, 0xa7, 0x5d, 0xac, 0x82,
  0x81, 0xa1, 0x83, 0x71, 0x94, 0x81, 0x91, 0x86, 0x90, 0x74, 0x79, 0x91,
  0x93, 0x95, 0xa6, 0x96, 0x9e, 0x69, 0x74, 0x82, 0x7c, 0x99, 0x89, 0x7a,
  0x6e, 0x95, 0x81, 0xa0, 0x9f, 0xa2, 0x98, 0x79, 0x9b, 0x86, 0x8b, 0xa0,
  0x9d, 0x81, 0x7d, 0xa1, 0x6d, 0x98, 0xb1, 0xa4, 0x9c, 0x74, 0x6a, 0x7d,
  0xa1, 0x8f, 0x96, 0x84, 0x95, 0x89, 0x8b, 0x78, 0x89, 0x7c, 0x7c, 0x8d,
  0x95, 0x76, 0x8f, 0x8e, 0x66, 0x70, 0x93, 0x81, 0x8b, 0x99, 0x72, 0xab,
  0x83, 0x76, 0x9b, 0x81, 0x8b, 0x93, 0x84, 0x88, 0x8a, 0x90, 0x8b, 0x7f,
  0x88, 0x6d, 0x8a, 0x95, 0x90, 0x63, 0x83, 0x81, 0x7c, 0x9f, 0xa0, 0xa5,
  0x87, 0xa2, 0xa0, 0x92, 0x94, 0xa6, 0x81, 0x98, 0xad, 0x9a, 0x97, 0x88,
  0x7c, 0x95, 0x77, 0x99, 0x93, 0xa8, 0xae, 0x84, 0x85, 0x8a, 0x6d, 0x9b,
  0x8c, 0x86, 0x9b, 0x85, 0x93, 0x6f, 0x79, 0xa6, 0x8e, 0x86, 0xac, 0x81,
  0x91, 0x90, 0x76, 0x74, 0x76, 0x92, 0xa6, 0x85, 0x86, 0x82, 0x6f, 0xa0,
  0xad, 0x68, 0x6c, 0x9e, 0x9b, 0x91, 0x7a, 0x8c, 0x81, 0x9c, 0x9f, 0x93,
  0x90, 0x7e, 0x9b, 0x8d, 0x64, 0x82, 0x8e, 0x8e, 0x9d, 0x94, 0xa5, 0x60,
  0x8c, 0x86, 0x6e, 0x7b, 0x83, 0x9d, 0x8c, 0x94, 0x71, 0x91, 0x8e, 0x82,
  0x61, 0x78, 0x76, 0x86, 0x88, 0x68, 0x7d, 0xaf, 0x85, 0x9d, 0x96, 0x75,
  0x77, 0x85, 0xa9, 0x98, 0x9d, 0xa2, 0x8c, 0xb4, 0x95, 0x7e, 0x83, 0x8d,
  0x95, 0x97, 0x7d, 0x81, 0xa6, 0x91, 0x87, 0x83, 0xa1, 0x77, 0x67, 0x97,
  0x7b, 0x99, 0x65, 0xa0, 0x9b, 0x79, 0x8a, 0x81, 0xa5, 0x99, 0x6d, 0x74,
  0xa3, 0x60, 0x9a, 0x87, 0x74, 0x86, 0x60, 0x97, 0x8a, 0x99, 0x82, 0xa3,
  0x7e, 0x5e, 0x7d, 0x9e, 0x87, 0x7d, 0x99, 0x9b, 0xaf, 0xa9, 0x82, 0x85,
  0x6a, 0x71, 0x63, 0x89, 0x8b, 0x6f, 0x6e, 0x96, 0x69, 0xa5, 0x85, 0xa0,
  0x7b, 0x99, 0x93, 0x92, 0x5d, 0x96, 0x89, 0x9d, 0x99, 0x83, 0x91, 0x86,
  0xa0, 0x84, 0x99, 0x68, 0x94, 0x83, 0x9c, 0xa1, 0xaa, 0x94, 0x8d, 0xa2,
  0x99, 0x96, 0x97, 0x90, 0xac, 0x7a, 0x62, 0x77, 0x8a, 0x8e, 0x79, 0x87,
  0x94, 0x99, 0x7a, 0x85, 0x75, 0x8a, 0x8f, 0x6a, 0x86, 0x84, 0x71, 0x65,
  0xa5, 0xaa, 0x79, 0xa8, 0x76, 0x7a, 0x61, 0x8e, 0x84, 0x9a, 0x99, 0xa2,
  0x8f, 0x6e, 0xb7, 0xa2, 0x89, 0x7a, 0x90, 0x87, 0x89, 0xaf, 0x71, 0x8a,
  0x82, 0x96, 0x74, 0x60, 0x64, 0xac, 0x85, 0x77, 0x89, 0x7c, 0x99, 0x73,
  0x86, 0xc9, 0x6e, 0x83, 0x8d, 0x88, 0xa4, 0xa0, 0x99, 0x79, 0x99, 0x94,
  0x7e, 0xa0, 0x5f, 0x90, 0x92, 0xa2, 0x86, 0x8a, 0x85, 0xb6, 0x69, 0x83,
  0xaf, 0x6c, 0x92, 0x6c, 0x85, 0x70, 0x5c, 0x96, 0x9b, 0x91, 0x8f, 0x8e,
  0x66, 0x92, 0x73, 0x73, 0x92, 0x68, 0x99, 0x8f, 0x8c, 0x82, 0x87, 0x8b,
  0x90, 0x89, 0x84, 0x79, 0x79, 0x6f, 0x9b, 0x83, 0x74, 0x76, 0x70, 0x76,
  0x86, 0xa2, 0x99, 0x73, 0x5f, 0x80, 0x96, 0x69, 0xb0, 0x85, 0x96, 0x8c,
  0x61, 0x80, 0x81, 0x88, 0x90, 0x89, 0xb3, 0x73, 0x7f, 0x93, 0x8b, 0x73,
  0x7e, 0x7a, 0xa9, 0x7e, 0x7c, 0xa1, 0x98, 0x7e, 0x93, 0x76, 0x70, 0xa9,
  0xaa, 0x87, 0x7a, 0xa3, 0x89, 0xa7, 0x7b, 0x9b, 0xa0, 0x8f, 0x6e, 0x74,
  0x64, 0x6e, 0x7d, 0x8e, 0x94, 0x8c, 0x93, 0x6a, 0x5f, 0x72, 0x86, 0x68,
  0x86, 0xa0, 0xa7, 0xa0, 0x73, 0xa8, 0x70, 0x91, 0x88, 0x8a, 0xa6, 0x77,
  0x88, 0x65, 0x79, 0x6f, 0x8c, 0x5b, 0x99, 0xa3, 0x85, 0x90, 0x84, 0x91,
  0x71, 0x7f, 0x68, 0x64, 0x58, 0x96, 0x5e, 0x91, 0x6c, 0xa0, 0x8e, 0xab,
  0x73, 0x86, 0x84, 0x92, 0xab, 0xcf, 0x70, 0x87, 0x9b, 0x79, 0xa3, 0x70,
  0x9d, 0x97, 0x6c, 0xa6, 0x8f, 0x9d, 0x4b, 0xa1, 0x9f, 0x95, 0x96, 0x7f,
  0xa6, 0x5e, 0x5b, 0x7b, 0xae, 0x91, 0x7b, 0x90, 0x6f, 0x97, 0x57, 0x93,
  0xa7, 0xc1, 0x8e, 0x7c, 0xa0, 0x8a, 0x5e, 0x87, 0x9a, 0x8f, 0x97, 0x8d,
  0x9d, 0x88, 0x8d, 0x8e, 0x86, 0x7a, 0x93, 0x84, 0x8f, 0x91, 0xc0, 0xbf,
  0x69, 0x8a, 0x86, 0x53, 0x66, 0x8b, 0xbd, 0x7f, 0x65, 0x84, 0x9d, 0x55,
  0x97, 0x8d, 0xd0, 0x8b, 0x6b, 0x7b, 0x98, 0x97, 0x9c, 0x93, 0x94, 0x89,
  0x6a, 0x67, 0x9d, 0x76, 0x96, 0x94, 0x8d, 0x92, 0x86, 0x71, 0x7a, 0x7d,
  0x7b, 0x70, 0x70, 0x92, 0xa7, 0x7a, 0x94, 0x76, 0x91, 0x9b, 0x7e, 0x86,
  0xa2, 0x7e, 0x9f, 0x63, 0x5a, 0x7f, 0x70, 0x7f, 0x99, 0xb3, 0x8c, 0x75,
  0x8e, 0x85, 0x82, 0x91, 0x87, 0xb3, 0x96, 0x75, 0x5c, 0x89, 0x77, 0xa1,
  0x65, 0x7a, 0x78, 0x64, 0x6a, 0x7a, 0x72, 0x6b, 0x7a, 0x83, 0x6e, 0x5c,
  0x5d, 0x81, 0x75, 0x74, 0x7b, 0x98, 0x84, 0x76, 0x77, 0x80, 0x95, 0xa0,
  0x62, 0x82, 0x7e, 0x81, 0x98, 0x76, 0xa5, 0x9e, 0x7f, 0xbb, 0x87, 0x74,
  0x7d, 0x8f, 0x9f, 0x95, 0x8b, 0x9f, 0x84, 0x98, 0x87, 0x9b, 0x46, 0xaf,
  0x96, 0xad, 0x73, 0x8f, 0x68, 0x93, 0x5e, 0x70, 0xaa, 0xbe, 0x94, 0x97,
  0x7d, 0x64, 0x51, 0x80, 0xb3, 0xc5, 0x6f, 0xa6, 0x67, 0x8a, 0x63, 0xa2,
  0xb8, 0x99, 0x9b, 0x88, 0x76, 0x88, 0x97, 0xaa, 0x82, 0x73, 0x88, 0x7b,
  0x78, 0x8e, 0xbb, 0xa5, 0x5d, 0x80, 0xa5, 0x8a, 0x93, 0x80, 0xc3, 0x82,
  0x5d, 0xa1, 0x8f, 0x89, 0x7a, 0x9a, 0xa7, 0xa0, 0x72, 0x7a, 0x99, 0x8e,
  0x5d, 0x5d, 0x9e, 0x88, 0x56, 0x9c, 0x71, 0xa2, 0x6b, 0x66, 0x9e, 0xaf,
  0x7b, 0x83, 0x83, 0xa8, 0x76, 0x68, 0x5d, 0x8e, 0x8f, 0x76, 0x9f, 0x87,
  0x8e, 0xac, 0x6f, 0x9b, 0xa7, 0xa9, 0x97, 0x7d, 0x8f, 0x91, 0x5d, 0xac,
  0x94, 0xb8, 0x70, 0x66, 0xaf, 0x6b, 0x9c, 0x83, 0x77, 0x8c, 0xa3, 0x9b,
  0x93, 0xab, 0x78, 0x84, 0x77, 0x6d, 0xa7, 0x96, 0x8f, 0x7d, 0x7c, 0x8a,
  0x6b, 0x72, 0x8b, 0x76, 0x84, 0x74, 0x8a, 0x83, 0x7b, 0x8c, 0x77, 0x85,
  0x87, 0x86, 0x82, 0x8c, 0x62, 0x7d, 0xa6, 0xa3, 0x8f, 0x78, 0x94, 0x75,
  0x8b, 0xb2, 0x86, 0xb4, 0x92, 0x79, 0xab, 0x9c, 0x8b, 0xa1, 0x81, 0xac,
  0x82, 0xa9, 0x46, 0xaf, 0x8e, 0xeb, 0x71, 0xae, 0x93, 0x61, 0x47, 0x87,
  0xa5, 0xd8, 0x85, 0xad, 0x8e, 0x8a, 0x2e, 0x96, 0xc5, 0xc7, 0x8a, 0x81,
  0x96, 0x7d, 0x74, 0x86, 0xa0, 0x96, 0x9e, 0xa2, 0x82, 0x99, 0xb2, 0x88,
  0x91, 0x97, 0xa2, 0xa7, 0x84, 0x87, 0xd3, 0xa7, 0x5e, 0x8f, 0x82, 0x89,
  0x85, 0x82, 0xd9, 0x93, 0x6b, 0x68, 0x7f, 0x91, 0xa3, 0xae, 0xc0, 0x9f,
  0x62, 0x87, 0x76, 0xa1, 0x76, 0x89, 0xb6, 0x9f, 0x6d, 0x80, 0x80, 0x75,
  0x88, 0x9f, 0x94, 0x8e, 0x8a, 0x66, 0x6a, 0x7a, 0x96, 0x9d, 0x84, 0xa2,
  0x9c, 0x61, 0x9a, 0x6f, 0x81, 0x97, 0x52, 0x98, 0xa9, 0xa0, 0x9a, 0x82,
  0x98, 0x70, 0x80, 0x9c, 0x9d, 0xaa, 0xaa, 0x72, 0xb2, 0x59, 0x96, 0x80,
  0x77, 0xa3, 0xa2, 0x85, 0x76, 0x7a, 0x78, 0x83, 0x7b, 0x7f, 0x8c, 0x6c,
  0x6b, 0x8e, 0x80, 0xa2, 0x65, 0x72, 0x8e, 0x8e, 0x76, 0x76, 0x8e, 0x8c,
  0x7c, 0x9e, 0x9b, 0x90, 0x72, 0x9e, 0x80, 0x7a, 0x65, 0x8b, 0x59, 0x7d,
  0xb2, 0x88, 0x93, 0x8d, 0x96, 0xb3, 0x8d, 0x96, 0x79, 0x77, 0x9f, 0xa7,
  0x8b, 0x6c, 0x6b, 0x91, 0x80, 0x8e, 0x3d, 0x9d, 0x93, 0xd6, 0x53, 0x86,
  0x62, 0x9d, 0x32, 0x85, 0xb5, 0xd7, 0x7b, 0x9b, 0x74, 0x7d, 0x31, 0x93,
  0xaf, 0xcd, 0x7c, 0x8f, 0x7e, 0x8a, 0x59, 0x8c, 0xb0, 0xa0, 0x94, 0x9b,
  0x92, 0x89, 0xa1, 0x8d, 0x92, 0x95, 0xa9, 0x91, 0x99, 0x88, 0xe4, 0x85,
  0x5c, 0x79, 0x83, 0x74, 0x7b, 0xac, 0xd1, 0x8a, 0x57, 0x87, 0x90, 0xa7,
  0x7e, 0x82, 0xa9, 0x9c, 0x53, 0x7d, 0x71, 0x87, 0x9d, 0x73, 0x86, 0x99,
  0x74, 0x68, 0x9c, 0x6c, 0x9b, 0x60, 0xa5, 0xa9, 0x85, 0x82, 0x88, 0x68,
  0x7c, 0x6b, 0x6c, 0x95, 0x94, 0x7c, 0xa0, 0x4f, 0x97, 0x9d, 0x52, 0xa1,
  0xad, 0xbd, 0x7b, 0x62, 0x81, 0x93, 0x79, 0xa2, 0xa5, 0x9e, 0xa5, 0x78,
  0x89, 0x65, 0xa2, 0x93, 0x84, 0x92, 0x8a, 0x81, 0x5b, 0xa1, 0x7e, 0xa0,
  0x82, 0x67, 0x89, 0x84, 0xa1, 0x8a, 0x6f, 0xac, 0x6c, 0x8f, 0x7b, 0x9a,
  0x9a, 0x77, 0x7e, 0xa8, 0x79, 0x8d, 0x69, 0x94, 0x9b, 0x76, 0x82, 0x89,
  0x5c, 0x9b, 0xa3, 0x91, 0x70, 0x9b, 0x71, 0x9f, 0x74, 0xac, 0x82, 0x79,
  0x66, 0x67, 0xb0, 0x96, 0xa3, 0xb2, 0x5b, 0x99, 0xa1, 0x94, 0x32, 0xaa,
  0x88, 0xfa, 0x60, 0x71, 0x9c, 0x90, 0x15, 0xa4, 0xb4, 0xd1, 0x4b, 0xb4,
  0x99, 0x87, 0x1c, 0x92, 0xa5, 0xcc, 0x8c, 0xb3, 0x93, 0x9b, 0x55, 0x9e,
  0xb2, 0xb2, 0x67, 0xa2, 0x82, 0x70, 0xa1, 0x8b, 0x91, 0x9a, 0x9d, 0x97,
  0xaa, 0x96, 0xda, 0x7c, 0x74, 0x83, 0x9e, 0x94, 0x8a, 0xa1, 0xdc, 0x94,
  0x5d, 0x95, 0x79, 0xab, 0x81, 0x87, 0xc6, 0x8e, 0x5b, 0x5c, 0x94, 0x84,
  0x83, 0x73, 0x98, 0x9d, 0x6b, 0x9e, 0x7b, 0x66, 0x9d, 0x9b, 0x7b, 0xb0,
  0x76, 0x70, 0x8d, 0x79, 0x94, 0x81, 0x82, 0x94, 0x8c, 0x86, 0x7f, 0x6f,
  0x9a, 0x72, 0x7f, 0x9d, 0xbc, 0xdc, 0x98, 0x78, 0x70, 0x7d, 0x85, 0x9e,
  0xa4, 0xab, 0xb1, 0x64, 0x68, 0x7c, 0xa7, 0xa6, 0x6a, 0x7d, 0x8e, 0x97,
  0x85, 0x9a, 0x8b, 0x97, 0x79, 0x77, 0x72, 0x7b, 0x80, 0x65, 0x79, 0xa0,
  0x84, 0x86, 0x8d, 0x89, 0x91, 0xa3, 0x8a, 0xa4, 0x6c, 0x8b, 0x77, 0x7e,
  0x94, 0x5d, 0x9d, 0x78, 0x55, 0x81, 0x94, 0x55, 0x89, 0x77, 0x8b, 0x96,
  0x78, 0xb4, 0x82, 0x7c, 0x6e, 0x7f, 0xa7, 0x9e, 0x8d, 0x98, 0x6d, 0x96,
  0xae, 0x6f, 0x31, 0x99, 0x98, 0xf7, 0x6a, 0x5a, 0x7b, 0x97, 0x0a, 0x87,
  0xb1, 0xcc, 0x67, 0xab, 0x84, 0x94, 0x13, 0x96, 0xb5, 0xcf, 0x65, 0xa0,
  0x91, 0x70, 0x66, 0x8b, 0xc0, 0xba, 0x88, 0xa9, 0x9a, 0x76, 0x9f, 0x9a,
  0x8c, 0xa8, 0xa7, 0x8d, 0x92, 0x81, 0xc2, 0x88, 0x5d, 0x64, 0x80, 0xa5,
  0x97, 0x81, 0xc1, 0x9c, 0x69, 0x73, 0x99, 0x8d, 0xa5, 0x84, 0xc4, 0x84,
  0x67, 0x8c, 0x80, 0x7c, 0x87, 0x74, 0xa3, 0x90, 0x57, 0x7d, 0x6f, 0x4c,
  0xad, 0x93, 0x8f, 0x8c, 0x6d, 0x6f, 0x91, 0x9f, 0x99, 0x77, 0x8d, 0xae,
  0x98, 0x7c, 0x76, 0x94, 0x80, 0x94, 0x89, 0x9a, 0xb4, 0xc0, 0x8a, 0x7b,
  0x90, 0x6c, 0x92, 0xac, 0x95, 0xbc, 0x8a, 0x6e, 0xa3, 0x86, 0x8c, 0xb3,
  0x70, 0x9f, 0xa1, 0x7e, 0x93, 0xa4, 0x8f, 0x94, 0x85, 0x5e, 0x9e, 0x63,
  0x84, 0x71, 0x82, 0xa1, 0x6a, 0x79, 0xa1, 0x62, 0x90, 0x85, 0x8d, 0x9c,
  0x81, 0x97, 0x8b, 0x92, 0x8f, 0x8b, 0x8d, 0x90, 0x56, 0x78, 0x76, 0x70,
  0x7f, 0x8e, 0x76, 0xa6, 0x8b, 0xaf, 0x88, 0x8e, 0x7a, 0x74, 0x91, 0x89,
  0x94, 0x92, 0x62, 0xa0, 0x8d, 0x97, 0x30, 0xb7, 0x8f, 0xf7, 0x6e, 0x40,
  0x8b, 0xa1, 0x01, 0x98, 0xad, 0xdc, 0x4d, 0xb1, 0x7e, 0x94, 0x03, 0x91,
  0xbd, 0xb9, 0x51, 0x8c, 0x95, 0x65, 0x5f, 0x8d, 0xb6, 0xb7, 0x91, 0x9c,
  0x74, 0x6f, 0x9b, 0x8b, 0x94, 0x88, 0x98, 0xa1, 0x58, 0x8f, 0xd2, 0x9e,
  0x6c, 0x63, 0x9e, 0xa6, 0x80, 0x9b, 0xd1, 0x9c, 0x64, 0x83, 0x7d, 0xa2,
  0x7e, 0x82, 0xb0, 0x91, 0x4f, 0x60, 0x85, 0x84, 0x63, 0xa0, 0xa6, 0x9a,
  0x63, 0x88, 0x94, 0x55, 0x72, 0xac, 0x78, 0xa4, 0x73, 0x69, 0x77, 0x7b,
  0xa0, 0x7f, 0x97, 0xa1, 0x94, 0x87, 0x75, 0x51, 0x8c, 0x84, 0x81, 0x9e,
  0xae, 0xcc, 0x7a, 0x8f, 0x95, 0x6d, 0x7b, 0xa2, 0x99, 0xb8, 0x9a, 0x68,
  0x87, 0x89, 0x9e, 0xab, 0x75, 0x95, 0x8d, 0x96, 0x78, 0xb1, 0x8b, 0x9a,
  0x83, 0x8b, 0x90, 0x71, 0x84, 0x78, 0x7a, 0x8d, 0x87, 0x89, 0x8b, 0x86,
  0x80, 0x7a, 0x95, 0xaa, 0x72, 0x68, 0x83, 0xa0, 0xb2, 0x6f, 0x66, 0xa1,
  0x53, 0x7b, 0x6a, 0x81, 0xa7, 0x67, 0x7e, 0x9f, 0x7f, 0xae, 0xa6, 0x84,
  0x9d, 0x80, 0x98, 0x8e, 0xa2, 0x6e, 0x68, 0x98, 0x91, 0xa3, 0x32, 0x9a,
  0x87, 0xf6, 0x4d, 0x58, 0x5b, 0x8e, 0x21, 0x93, 0x9b, 0xd4, 0x58, 0x94,
  0x7b, 0xa7, 0x0c, 0x9a, 0xb9, 0xc8, 0x7e, 0x87, 0x68, 0xb6, 0x6b, 0x8e,
  0xb3, 0xc8, 0x84, 0x8c, 0x74, 0x8b, 0xaf, 0x96, 0x96, 0xaa, 0x88, 0xa3,
  0x8f, 0x9a, 0xbb, 0x84, 0x6b, 0x68, 0x9b, 0xb2, 0x7a, 0xa8, 0xd6, 0x7d,
  0x56, 0x6a, 0x9a, 0xa3, 0x88, 0x95, 0xc3, 0x9c, 0x50, 0x83, 0x83, 0x83,
  0xb1, 0x90, 0xa5, 0xa4, 0x58, 0x67, 0x86, 0x54, 0x6f, 0x69, 0x8b, 0x9f,
  0x70, 0x6c, 0x92, 0x6d, 0x8e, 0x83, 0x7a, 0xbc, 0x9c, 0xa7, 0x6b, 0x67,
  0x8e, 0x84, 0x82, 0x9f, 0xa0, 0xbd, 0x6a, 0x6e, 0x91, 0x76, 0x92, 0x93,
  0xac, 0xad, 0xa5, 0x62, 0xa1, 0x7f, 0xa0, 0xa6, 0x8e, 0x99, 0x98, 0x96,
  0xa1, 0x96, 0x84, 0x99, 0x7b, 0x6a, 0x9c, 0x89, 0x95, 0xa0, 0x73, 0x92,
  0x8e, 0x8d, 0x8a, 0x64, 0x86, 0xaa, 0x7f, 0xa2, 0x86, 0x8a, 0x67, 0x71,
  0x6a, 0x89, 0x72, 0xb4, 0x6c, 0x71, 0xa1, 0x85, 0xa3, 0x8d, 0x70, 0x9e,
  0x72, 0xa1, 0x96, 0x7d, 0x69, 0x72, 0x9b, 0x8b, 0x9b, 0x88, 0x78, 0x98,
  0x8d, 0x93, 0x36, 0x92, 0x92, 0xec, 0x4b, 0x6a, 0x71, 0x91, 0x25, 0x92,
  0xaa, 0xc9, 0x5f, 0xa2, 0x90, 0x95, 0x08, 0x89, 0xa5, 0xbf, 0x54, 0x77,
  0x86, 0x70, 0x7d, 0x77, 0xbe, 0xa5, 0x72, 0x94, 0x7a, 0x9e, 0xa2, 0x8f,
  0x81, 0x8f, 0xa3, 0x95, 0x7b, 0x90, 0xcb, 0x86, 0x58, 0x75, 0xa3, 0xa8,
  0x7b, 0x89, 0xb3, 0x9b, 0x3f, 0x61, 0xa0, 0x97, 0x92, 0x80, 0xbe, 0x9e,
  0x48, 0x6e, 0xa8, 0x87, 0x9f, 0xa4, 0x9b, 0x8e, 0x5f, 0x89, 0x81, 0x70,
  0x94, 0x8f, 0x88, 0x99, 0x78, 0x7d, 0x8a, 0x75, 0x9c, 0x7f, 0x6f, 0x9d,
  0x86, 0x74, 0x83, 0x75, 0x6f, 0x71, 0x7e, 0xa1, 0x9c, 0xaf, 0x92, 0x94,
  0x7a, 0xa3, 0xa0, 0x9a, 0x9c, 0xa5, 0x96, 0x68, 0x84, 0x96, 0x94, 0x9d,
  0x93, 0x95, 0x96, 0x76, 0x80, 0x7b, 0x8a, 0x97, 0x6f, 0x75, 0x75, 0x95,
  0x67, 0x84, 0x72, 0xb1, 0x77, 0x8f, 0x8c, 0x7e, 0x90, 0x96, 0x7d, 0xa4,
  0x77, 0xb4, 0x86, 0x96, 0x9d, 0x94, 0x79, 0x89, 0x69, 0x79, 0x7b, 0x8a,
  0x5e, 0x8e, 0x92, 0x9d, 0x7f, 0xb5, 0x66, 0x77, 0x97, 0x5f, 0x93, 0x91,
  0xa8, 0x99, 0x46, 0x96, 0x92, 0x75, 0x30, 0x89, 0x83, 0xe8, 0x33, 0x6d,
  0x95, 0x7f, 0x11, 0x88, 0xad, 0xd8, 0x70, 0x9f, 0x73, 0x75, 0x07, 0x85,
  0xc2, 0xbb, 0x54, 0x82, 0x98, 0x7a, 0x5a, 0x77, 0xba, 0xc5, 0x78, 0x89,
  0x6c, 0x68, 0xad, 0x97, 0x7f, 0x9d, 0x99, 0x92, 0x7f, 0x73, 0xd2, 0x8f,
  0x5b, 0x6b, 0xb6, 0xb4, 0x75, 0x9d, 0xc6, 0xa6, 0x4c, 0x4e, 0x96, 0xa9,
  0x7f, 0x9e, 0xb2, 0x92, 0x4c, 0x70, 0x9b, 0x93, 0x7f, 0x72, 0xb3, 0x8c,
  0x62, 0x6c, 0x91, 0x59, 0xa4, 0x95, 0x93, 0x9d, 0x5e, 0x7d, 0x8c, 0x66,
  0x8d, 0x6f, 0x6a, 0x9c, 0x90, 0x97, 0x69, 0x86, 0x79, 0x71, 0x6a, 0xa7,
  0xa9, 0xc1, 0x7d, 0x83, 0x9a, 0x79, 0x84, 0x90, 0xab, 0xab, 0xaa, 0x7f,
  0x73, 0x7f, 0x90, 0x9e, 0x9d, 0x7e, 0x77, 0x8b, 0x87, 0xa8, 0x91, 0xa4,
  0x8b, 0x6d, 0x9c, 0x8f, 0x80, 0x8b, 0x67, 0xab, 0x82, 0x9f, 0x85, 0x6e,
  0x7d, 0x9b, 0x81, 0xa4, 0x70, 0xa0, 0x8d, 0xa4, 0x8d, 0x66, 0x82, 0xa2,
  0x50, 0x8e, 0x65, 0x70, 0x9a, 0x87, 0x9d, 0xa0, 0x6f, 0xaa, 0x8b, 0x76,
  0x9e, 0x6f, 0x84, 0x86, 0x89, 0x87, 0x5c, 0x94, 0x90, 0x61, 0x2e, 0x85,
  0x7d, 0xde, 0x29, 0x80, 0x90, 0x8d, 0x24, 0x84, 0xaf, 0xce, 0x3e, 0x80,
  0x92, 0x98, 0x06, 0x72, 0xbc, 0xbe, 0x70, 0x6e, 0xa5, 0x97, 0x4e, 0x85,
  0xb6, 0xbd, 0x95, 0x8e, 0x8e, 0x9f, 0xc0, 0x9b, 0x78, 0xae, 0x83, 0xa0,
  0x90, 0x97, 0xc8, 0x93, 0x60, 0x58, 0xc4, 0xb0, 0x85, 0x90, 0xaa, 0xab,
  0x4a, 0x35, 0x88, 0xb4, 0x93, 0xa7, 0xb5, 0xa6, 0x48, 0x5e, 0x9f, 0x8f,
  0x8d, 0x7d, 0x98, 0x98, 0x48, 0x83, 0x78, 0x66, 0xa4, 0x94, 0x87, 0xa7,
  0x7c, 0x6d, 0x94, 0x87, 0x66, 0x95, 0x70, 0xb9, 0x96, 0xa6, 0xa0, 0x73,
  0x85, 0x81, 0x6c, 0xad, 0xb8, 0xa9, 0x73, 0x8f, 0x84, 0x8f, 0x7d, 0xa3,
